genus 3689
family 1447
of 1311
-@@ 937
a 929
re@@ 884
in@@ 883
us 817
di@@ 783
s 769
er 745
e@@ 709
o@@ 693
de@@ 688
co@@ 687
e 679
o 666
ing 655
y 640
i 624
ar@@ 606
t 605
li@@ 599
k@@ 587
ation 561
al@@ 556
i@@ 547
um 535
lo@@ 534
idae 528
p@@ 523
en@@ 508
si@@ 508
ti@@ 508
le@@ 504
on 503
ia 502
an@@ 484
y@@ 476
g@@ 468
con@@ 464
d@@ 464
u@@ 464
ch@@ 463
po@@ 462
ro@@ 458
an 457
un@@ 445
n@@ 444
aceae 441
's 440
al 438
ri@@ 437
tree 437
pro@@ 432
mo@@ 427
on@@ 422
ac@@ 419
am@@ 419
la@@ 418
order 417
ic 415
in 415
to@@ 411
s@@ 410
er@@ 409
or@@ 402
at@@ 398
se@@ 392
bo@@ 391
ate 389
t@@ 386
tri@@ 386
b@@ 378
h@@ 372
ed 367
a@@ 365
per@@ 362
car@@ 361
par@@ 361
es 359
im@@ 359
k 358
sh@@ 355
l 352
no@@ 351
w@@ 350
ine 349
p 344
ra@@ 337
as@@ 334
d 330
le 330
ad@@ 328
man 326
th@@ 324
es@@ 323
is 321
m@@ 321
fish 317
id 314
st@@ 314
z@@ 314
line 313
pe@@ 312
c@@ 311
ag@@ 309
ne@@ 308
ex@@ 307
ism 307
ab@@ 305
b 302
is@@ 302
man@@ 302
ata 298
do@@ 295
ul@@ 295
ap@@ 293
system 292
v@@ 291
et@@ 288
em@@ 287
f@@ 283
ness 283
g 282
x 281
cor@@ 280
pre@@ 279
mon@@ 278
ph@@ 278
mar@@ 277
ter 276
pi@@ 275
om@@ 274
ic@@ 272
oc@@ 272
vi@@ 272
can@@ 271
m 271
ist 270
sc@@ 267
water 267
ma@@ 266
qu@@ 264
el@@ 263
sis 263
it@@ 261
l@@ 261
op@@ 260
sp@@ 257
age 252
tic 252
tion 252
cal@@ 251
be@@ 249
ent 248
plant 247
ver@@ 247
so@@ 246
acid 245
te@@ 244
bi@@ 243
n 243
unit 243
go@@ 240
ter@@ 240
the 239
ker 238
me@@ 237
grass 235
id@@ 235
ator 234
ium 234
sub@@ 232
white 232
dis@@ 229
ment 228
u 226
ur@@ 226
ec@@ 225
red 225
ity 224
and 222
ian 222
j@@ 221
poly@@ 221
wood 221
anti@@ 219
com@@ 219
c 218
common 217
he@@ 217
ant 216
de 216
mer@@ 216
gu@@ 215
bar@@ 214
alis 211
iness 210
ly@@ 210
ste@@ 210
for@@ 208
ales 207
ting 207
aria 206
tu@@ 206
ar 205
house 205
ci@@ 204
inter@@ 204
der 202
ella 202
te 202
tis 202
american 200
e-@@ 199
ence 199
law 199
mal@@ 199
sa@@ 199
se 199
ance 198
black 198
sia 197
ob@@ 195
fern 193
time 192
ent@@ 191
ho@@ 189
r@@ 189
ge@@ 188
cu@@ 187
day 187
h 186
il@@ 186
ina 186
ca@@ 185
gen@@ 185
mi@@ 185
number 185
ta 185
board 184
lin@@ 184
my@@ 184
ni@@ 184
um@@ 184
vein 182
ce@@ 181
su@@ 180
us@@ 179
ite 178
per 178
ta@@ 178
ten@@ 178
gi@@ 177
pan@@ 175
sal@@ 175
class 174
ea 174
ru@@ 174
x@@ 174
king 173
ber@@ 172
bird 172
cat@@ 172
ma 172
head 171
oil 171
bal@@ 169
ut@@ 169
pal@@ 168
pin@@ 167
mor@@ 164
ability 163
du@@ 163
disease 162
mat@@ 162
bri@@ 161
cer@@ 161
or 161
pen@@ 161
tor@@ 161
non@@ 160
tro@@ 160
ran@@ 159
cy@@ 158
ary 157
bro@@ 157
ling 157
men@@ 157
ol@@ 157
el 156
min@@ 156
pine 156
ula 154
pri@@ 153
we@@ 153
der@@ 152
mis@@ 152
cap@@ 151
ir@@ 150
leaf 150
sea 150
ser@@ 150
weed 150
ke@@ 149
lan@@ 149
sch@@ 149
au@@ 148
bu@@ 148
ding 148
micro@@ 148
tur@@ 148
fe@@ 147
st 147
ach@@ 145
field 145
ton@@ 145
gal@@ 144
as 143
cell 143
gra@@ 143
mu@@ 143
one 143
sion 143
tive 143
tan@@ 142
tra@@ 142
ast@@ 141
bur@@ 141
os@@ 141
vena 141
ch 140
chi@@ 140
har@@ 140
atus 139
ha@@ 139
hyper@@ 139
tor 139
atomic 138
ball 138
eness 138
hy@@ 138
language 138
lation 138
ide 137
monetary 137
and@@ 136
tia 136
ana 135
at 135
her@@ 135
light 135
over@@ 135
ry 135
ality 134
den@@ 134
room 134
ster 134
tic@@ 134
blue 133
cam@@ 132
ard 131
dy@@ 131
ig@@ 131
sa 131
tar@@ 131
flower 130
por@@ 130
berry 129
box 129
ler 129
ous 129
point 129
ship 129
ster@@ 129
cre@@ 128
hypo@@ 128
ven@@ 128
fire 127
yellow 127
air 126
che@@ 126
dium 126
fer@@ 126
oph@@ 126
pa@@ 126
sw@@ 126
ari@@ 125
ga@@ 125
ger@@ 125
pu@@ 125
r 125
tus 125
ple@@ 124
vo@@ 124
ak@@ 123
et 123
met@@ 123
ousness 123
ad 122
az@@ 122
bean 122
cur@@ 122
en 122
gar@@ 122
it 122
ve@@ 122
back 121
ble 121
cro@@ 121
land 121
logy 121
artery 120
ase 120
fo@@ 120
lam@@ 120
let 120
super@@ 120
wild 120
col@@ 119
hi@@ 119
ly 119
sti@@ 119
val@@ 119
av@@ 118
ce 118
cho@@ 118
ing@@ 118
self-@@ 118
ae 117
bush 117
dog 117
gri@@ 117
hal@@ 117
lia 117
mac@@ 117
t-@@ 117
wort 117
ati@@ 116
eu@@ 116
na@@ 116
tre@@ 116
da 115
ep@@ 115
ry@@ 115
th 115
ty 115
lu@@ 114
aster 113
dic@@ 113
ra 113
w 113
fly 112
il 112
work 112
alism 111
ge 111
d-@@ 110
ery 110
pea 110
person 110
pho@@ 110
pic@@ 110
service 110
sin@@ 110
tal@@ 110
up 110
ver 110
lat@@ 109
stone 109
bra@@ 108
f 108
ill@@ 108
paper 108
cas@@ 107
ve 107
sor@@ 106
ang@@ 105
bor@@ 105
ca 104
na 104
urus 104
body 103
bone 103
car 103
ed@@ 103
ger 103
hydro@@ 103
mountain 103
nut 103
rac@@ 103
snake 103
uri@@ 103
cla@@ 102
dro@@ 102
ement 102
horse 102
mas@@ 102
pet@@ 102
sen@@ 102
ser 102
ts 102
ba@@ 101
oak 101
out@@ 101
pla@@ 101
ther@@ 101
war@@ 101
ableness 100
agent 100
ative 100
bon@@ 100
char@@ 100
mus 100
sto@@ 100
stri@@ 100
sur@@ 100
ble@@ 99
book 99
european 99
ff 99
ke 99
log@@ 99
pul@@ 99
rat@@ 99
sco@@ 99
sk@@ 99
ensis 98
green 98
io@@ 98
root 98
tail 98
tin@@ 98
ty@@ 98
under@@ 98
ure 98
vol@@ 98
wa@@ 98
ban@@ 97
chlor@@ 97
cra@@ 97
fla@@ 97
py@@ 97
tidae 97
worm 97
ath@@ 96
da@@ 96
des@@ 96
drug 96
eth@@ 96
ju@@ 96
old 96
ps 96
anth@@ 95
ero@@ 95
group 95
illa 95
indian 95
san@@ 95
son@@ 95
test 95
to 95
way 95
bar 94
ber 94
ili@@ 94
jo@@ 94
y-@@ 94
cus 93
fi@@ 93
ica 93
mus@@ 93
ology 93
rock 93
vic@@ 93
ade 92
cha@@ 92
don@@ 92
gon@@ 92
hem@@ 92
inus 92
pa 92
pter@@ 92
rate 92
school 92
sol@@ 92
cul@@ 91
dra@@ 91
gre@@ 91
machine 91
pur@@ 91
set 91
ating 90
bul@@ 90
chor@@ 90
ff@@ 90
macro@@ 90
nor@@ 90
ss@@ 90
atum 89
department 89
end@@ 89
er's 89
folia 89
gro@@ 89
lily 89
ne 89
ram@@ 89
tation 89
ano@@ 88
apo@@ 88
don 88
form 88
kin@@ 88
lic 88
lic@@ 88
logist 88
phy@@ 88
ric@@ 88
table 88
bus 87
cy 87
gy@@ 87
ization 87
mes@@ 87
ner 87
od@@ 87
ren@@ 87
alist 86
apple 86
bre@@ 86
clo@@ 86
equ@@ 86
fl@@ 86
ground 86
hand 86
mid@@ 86
power 86
re 86
sar@@ 86
ton 86
ur 86
uro@@ 86
wing 86
ice 85
la 85
lidae 85
pe 85
plan@@ 85
tea 85
tes 85
the@@ 85
back@@ 84
iron 84
rec@@ 84
rub@@ 84
sel@@ 84
ura 84
world 84
able 83
ben@@ 83
blood 83
cent@@ 83
ion 83
neuro@@ 83
ox@@ 83
pat@@ 83
phal@@ 83
state 83
uc@@ 83
zo@@ 83
anthus 82
golden 82
hom@@ 82
ides 82
isation 82
lus 82
mono@@ 82
ora 82
squ@@ 82
z 82
arteria 81
gas 81
high 81
ical 81
ol 81
pas@@ 81
rin@@ 81
sweet 81
ut 81
vine 81
af@@ 80
ated 80
black@@ 80
dri@@ 80
ga 80
game 80
head@@ 80
ii 80
lar@@ 80
muscle 80
pus 80
ture 80
aff@@ 79
anus 79
bank 79
by 79
corn 79
counter@@ 79
din@@ 79
est@@ 79
ker@@ 79
ko@@ 79
side 79
stock 79
tom@@ 79
ale 78
am 78
ant@@ 78
bill 78
cat 78
dam@@ 78
dec@@ 78
fri@@ 78
ida 78
moth 78
nerve 78
pon@@ 78
ring 78
wh@@ 78
bas@@ 77
bed 77
but@@ 77
cher 77
church 77
dor@@ 77
electro@@ 77
false 77
ful 77
gam@@ 77
iz@@ 77
lis 77
party 77
suborder 77
syn@@ 77
tele@@ 77
alization 76
arch 76
area 76
bread 76
ele@@ 76
electric 76
ency 76
era 76
tam@@ 76
ash 75
eus 75
eye 75
foot 75
fulness 75
gn@@ 75
gum 75
lac@@ 75
ny 75
pl@@ 75
process 75
program 75
second 75
tax 75
western 75
ace@@ 74
fa@@ 74
fever 74
iaceae 74
k-@@ 74
life 74
low@@ 74
mer 74
ner@@ 74
osa 74
star 74
trans@@ 74
wal@@ 74
alisation 73
glo@@ 73
hum@@ 73
ka 73
lar 73
mag@@ 73
pap@@ 73
ping 73
que 73
sil@@ 73
sun@@ 73
thy@@ 73
tism 73
und@@ 73
case 72
gun 72
ham@@ 72
les 72
lon@@ 72
new 72
phyllum 72
vit@@ 72
word 72
company 71
fre@@ 71
hu@@ 71
ius 71
lessness 71
peri@@ 71
seed 71
sh 71
station 71
stra@@ 71
ya 71
bag 70
computer 70
dar@@ 70
dness 70
ds 70
dy 70
ela@@ 70
fu@@ 70
glass 70
len@@ 70
nic@@ 70
opsis 70
ron@@ 70
son 70
stre@@ 70
atic 69
bin@@ 69
bl@@ 69
boat 69
cin@@ 69
color 69
double 69
hand@@ 69
meter 69
military 69
mit@@ 69
radi@@ 69
sauce 69
sus 69
ah 68
bell 68
boy 68
business 68
card 68
cri@@ 68
eg@@ 68
far@@ 68
gh@@ 68
itis 68
lin 68
onia 68
ori@@ 68
rose 68
spar@@ 68
syndrome 68
vin@@ 68
ae@@ 67
alo@@ 67
chan@@ 67
cle@@ 67
ese 67
esis 67
gy 67
hol@@ 67
hor@@ 67
maker 67
ning 67
right 67
silver 67
sm 67
tube 67
xi@@ 67
bit 66
bomb 66
dia 66
ear@@ 66
ev@@ 66
fal@@ 66
lim@@ 66
pit@@ 66
plane 66
plo@@ 66
pper 66
sam@@ 66
sn@@ 66
stic@@ 66
tr@@ 66
bat@@ 65
cap 65
cephal@@ 65
cherry 65
ee 65
force 65
graphy 65
hole 65
master 65
my 65
plate 65
public 65
ris 65
som@@ 65
space 65
theory 65
cit@@ 64
dance 64
disorder 64
ell@@ 64
emia 64
factor 64
gram 64
home 64
tran@@ 64
united 64
wheel 64
woman 64
wor@@ 64
's-@@ 63
action 63
air@@ 63
ax 63
bility 63
bla@@ 63
bun@@ 63
dom@@ 63
food 63
idi@@ 63
japanese 63
me 63
music 63
net 63
nia 63
palm 63
stro@@ 63
thi@@ 63
tics 63
tin 63
trac@@ 63
2@@ 62
art 62
control 62
dan@@ 62
down 62
go 62
great 62
lor@@ 62
nu@@ 62
pel@@ 62
post@@ 62
ration 62
sand@@ 62
sy 62
sy@@ 62
tium 62
v 62
va 62
yo@@ 62
zer 62
ak 61
bio@@ 61
cake 61
court 61
ene 61
ens 61
first 61
joint 61
led 61
mel@@ 61
mental 61
mil@@ 61
onic 61
oxy@@ 61
photo@@ 61
pra@@ 61
rus 61
set@@ 61
shot 61
sin 61
sive 61
tional 61
ub@@ 61
war 61
win@@ 61
aph@@ 60
ato@@ 60
auto@@ 60
be 60
cir@@ 60
coc@@ 60
end 60
garden 60
giant 60
han@@ 60
ial 60
ometer 60
oo@@ 60
operation 60
phor@@ 60
pot@@ 60
pun@@ 60
shi@@ 60
sing 60
social 60
sph@@ 60
stick 60
str@@ 60
yl 60
1@@ 59
bug 59
eri@@ 59
ess 59
hoo@@ 59
ide@@ 59
int@@ 59
intelligence 59
ist@@ 59
key 59
lamp 59
lion 59
magnetic 59
milk 59
pipe 59
plat@@ 59
rat 59
ron 59
sity 59
ud@@ 59
ure@@ 59
beetle 58
dle 58
dwarf 58
english 58
flo@@ 58
ino@@ 58
ish 58
orchid 58
poli@@ 58
rum 58
skin 58
tical 58
til@@ 58
vari@@ 58
cen@@ 57
cli@@ 57
epi@@ 57
fin@@ 57
french 57
general 57
idea 57
ile 57
ire 57
liness 57
mark 57
market 57
num@@ 57
pin 57
potato 57
race 57
ric 57
scale 57
shop 57
ss 57
tac@@ 57
tness 57
acro@@ 56
angle 56
ba 56
bat 56
bel@@ 56
block 56
eli@@ 56
eria 56
low 56
oid 56
oli@@ 56
oma 56
ory 56
post 56
press 56
purple 56
red@@ 56
science 56
spor@@ 56
sta@@ 56
star@@ 56
tem@@ 56
tho@@ 56
up@@ 56
'@@ 55
adi@@ 55
bac@@ 55
chinese 55
cock@@ 55
dae 55
fire@@ 55
gla@@ 55
le-@@ 55
lock 55
stom@@ 55
suit 55
tet@@ 55
ulus 55
uni@@ 55
virus 55
vis@@ 55
wave 55
yc@@ 55
bic@@ 54
chin@@ 54
coat 54
dal@@ 54
duc@@ 54
fle@@ 54
graph 54
ir 54
ise 54
iser 54
national 54
orange 54
sla@@ 54
tt@@ 54
use 54
actin@@ 53
aris 53
ching 53
cup 53
cyclo@@ 53
gland 53
gram@@ 53
iso@@ 53
ot 53
ring@@ 53
sand 53
spin@@ 53
sym@@ 53
water@@ 53
west 53
asi@@ 52
bark 52
bit@@ 52
center 52
cyto@@ 52
ena 52
ette 52
green@@ 52
heart 52
ics 52
ill 52
inf@@ 52
letter 52
mut@@ 52
off@@ 52
pinus 52
prunus 52
sac@@ 52
sap@@ 52
sman 52
steel 52
subclass 52
thal@@ 52
type 52
wi@@ 52
wind 52
wood@@ 52
acanth@@ 51
ache 51
aea 51
aqu@@ 51
arch@@ 51
brown 51
chain 51
crab 51
data 51
ers 51
free 51
fungus 51
gran@@ 51
ination 51
night 51
nus 51
office 51
ph 51
pig@@ 51
proto@@ 51
pyro@@ 51
quin@@ 51
security 51
slo@@ 51
tomy 51
ute 51
wer 51
a-@@ 50
acea 50
ack 50
arc@@ 50
chemical 50
ck 50
death 50
ded 50
des 50
fac@@ 50
fication 50
geo@@ 50
gia 50
metal 50
mic@@ 50
pec@@ 50
piece 50
prairie 50
quercus 50
reaction 50
shell 50
tax@@ 50
tiveness 50
tun@@ 50
tw@@ 50
willow 50
ac 49
asis 49
cel@@ 49
chro@@ 49
chus 49
club 49
cut@@ 49
didae 49
dre@@ 49
fun@@ 49
gan@@ 49
hel@@ 49
heli@@ 49
ine@@ 49
lem@@ 49
list 49
lum@@ 49
mul@@ 49
organ 49
os 49
ral 49
sodium 49
suc@@ 49
tab@@ 49
tetra@@ 49
therapy 49
thro@@ 49
tist 49
trade 49
van@@ 49
vel@@ 49
aden@@ 48
arian 48
bil@@ 48
cham@@ 48
coffee 48
ey@@ 48
in-@@ 48
ket@@ 48
ki@@ 48
lla 48
major 48
multi@@ 48
osis 48
ption 48
saurus 48
spo@@ 48
states 48
sugar 48
sum 48
ular 48
wall 48
weight 48
account 47
bus@@ 47
by@@ 47
cream 47
dog@@ 47
edi@@ 47
est 47
flying 47
fruit 47
gray 47
gue 47
hair 47
icus 47
jack@@ 47
mouse 47
musculus 47
pepper 47
pie 47
play 47
que@@ 47
ridae 47
saw 47
sho@@ 47
sty@@ 47
violet 47
vul@@ 47
wil@@ 47
wine 47
ans 46
assi@@ 46
atory 46
calli@@ 46
cer 46
cher@@ 46
chicken 46
ck@@ 46
cory@@ 46
council 46
cross 46
daisy 46
eno@@ 46
flu@@ 46
good 46
grey 46
guard 46
gun@@ 46
haem@@ 46
horn 46
hyd@@ 46
ing-@@ 46
mam@@ 46
mass 46
mia 46
ops 46
optera 46
pent@@ 46
phone 46
posi@@ 46
pp@@ 46
psi@@ 46
pto@@ 46
rum@@ 46
sli@@ 46
sta 46
stor@@ 46
tion@@ 46
tooth 46
top 46
trich@@ 46
ugh 46
var@@ 46
wel@@ 46
ze 46
anism 45
blo@@ 45
call 45
care 45
check 45
comp@@ 45
eff@@ 45
elo@@ 45
engine 45
ful@@ 45
genesis 45
ings 45
ja 45
ky 45
lec@@ 45
leg@@ 45
lism 45
lium 45
natural 45
ola 45
opus 45
pid@@ 45
powder 45
pt 45
rh@@ 45
sarco@@ 45
sci@@ 45
sle@@ 45
subfamily 45
tle 45
trust 45
. 44
1 44
acc@@ 44
african 44
animal 44
arius 44
ax@@ 44
band 44
bond 44
california 44
dry@@ 44
ech@@ 44
em 44
face 44
gus 44
hard 44
hetero@@ 44
iformes 44
ingness 44
kin 44
level 44
lizard 44
luc@@ 44
lun@@ 44
ocarpus 44
officer 44
one-@@ 44
onidae 44
opteris 44
pan 44
phen@@ 44
phon@@ 44
phylla 44
plum 44
position 44
rag@@ 44
rho@@ 44
sage 44
sation 44
shar@@ 44
siveness 44
sor 44
spring 44
stan@@ 44
thermo@@ 44
tim@@ 44
tory 44
ua 44
ule 44
window 44
worker 44
ze@@ 44
ather@@ 43
buc@@ 43
defense 43
energy 43
enter@@ 43
ering 43
fil@@ 43
file 43
fra@@ 43
fran@@ 43
ft 43
gen 43
gg@@ 43
indi@@ 43
iner 43
instrument 43
mand@@ 43
money 43
mur@@ 43
mushroom 43
nar@@ 43
nel 43
ocar@@ 43
pag@@ 43
pink 43
ple 43
pot 43
pping 43
pseudo@@ 43
pti@@ 43
put@@ 43
ray 43
roll 43
s-@@ 43
safety 43
sian 43
sou@@ 43
spec@@ 43
sul@@ 43
sup@@ 43
ted 43
terrier 43
thor@@ 43
ulation 43
ying 43
ys 43
abo@@ 42
agency 42
alli@@ 42
aly@@ 42
ay 42
bet@@ 42
brain 42
cab@@ 42
cedar 42
chair 42
cic@@ 42
division 42
dollar 42
door 42
dry 42
eal 42
fic@@ 42
flora 42
ft@@ 42
ging 42
girl 42
gor@@ 42
international 42
iv@@ 42
ja@@ 42
jack 42
ks 42
ll@@ 42
mati@@ 42
meg@@ 42
ony@@ 42
ou@@ 42
past@@ 42
phus 42
pil@@ 42
place 42
prote@@ 42
relation 42
sion@@ 42
stic 42
stoma 42
tag@@ 42
tal 42
tap@@ 42
yard 42
ach 41
alia 41
ancy 41
bran@@ 41
che 41
crypto@@ 41
device 41
er-@@ 41
flor@@ 41
gation 41
hat 41
heat 41
horse@@ 41
house@@ 41
ket 41
lens 41
ley 41
lit@@ 41
medi@@ 41
northern 41
odon 41
oides 41
ole@@ 41
organization 41
osc@@ 41
p-@@ 41
podi@@ 41
qui@@ 41
sign@@ 41
sper@@ 41
stage 41
tru@@ 41
true 41
zone 41
.@@ 40
0 40
aco@@ 40
americana 40
anthera 40
ay@@ 40
big 40
cac@@ 40
chal@@ 40
code 40
colum@@ 40
cotton 40
credit 40
dio@@ 40
do 40
drop 40
eastern 40
eco@@ 40
electronic 40
formes 40
gate 40
gul@@ 40
half 40
hot 40
human 40
ip@@ 40
iris 40
izer 40
je@@ 40
ken@@ 40
less 40
let@@ 40
lut@@ 40
motor 40
mun@@ 40
name 40
nit@@ 40
ore 40
out 40
oxide 40
pocket 40
pod 40
pressure 40
proc@@ 40
road 40
sab@@ 40
ses@@ 40
shark 40
square 40
swamp 40
va@@ 40
voc@@ 40
wat@@ 40
yer 40
acy 39
ake 39
amph@@ 39
ational 39
bear 39
bee 39
big@@ 39
cheese 39
chel@@ 39
chryso@@ 39
cloth 39
colour 39
coral 39
course 39
dic 39
doctor 39
dus 39
fan@@ 39
high@@ 39
hood 39
hun@@ 39
inum 39
jam@@ 39
king@@ 39
love 39
medicine 39
ment@@ 39
ming 39
moss 39
nec@@ 39
part 39
pis@@ 39
plum@@ 39
pole 39
roman 39
scal@@ 39
sense 39
sheet 39
site 39
ssi@@ 39
stag@@ 39
stat@@ 39
stin@@ 39
stu@@ 39
ve-@@ 39
ving 39
whit@@ 39
wind@@ 39
zz@@ 39
2 38
bab@@ 38
bass 38
cru@@ 38
den 38
ema 38
fer 38
fier 38
fore@@ 38
gly@@ 38
insurance 38
iousness 38
ishness 38
ka@@ 38
knife 38
l-@@ 38
labor 38
land@@ 38
lep@@ 38
ley@@ 38
lyco@@ 38
mail 38
material 38
medical 38
memory 38
method 38
movement 38
ny@@ 38
ologist 38
pad 38
radiation 38
rhiz@@ 38
rocket 38
rule 38
sal 38
section 38
snow@@ 38
stem@@ 38
street 38
ue 38
uria 38
yl@@ 38
zi@@ 38
ala 37
andra 37
ateness 37
bin 37
brake 37
bull@@ 37
can 37
central 37
circuit 37
clin@@ 37
conver@@ 37
coun@@ 37
dity 37
elli@@ 37
enti@@ 37
federal 37
frog 37
gas@@ 37
gem@@ 37
ground@@ 37
heter@@ 37
hex@@ 37
ila 37
ind@@ 37
jacket 37
jun@@ 37
ler@@ 37
mad@@ 37
mol@@ 37
motion 37
nem@@ 37
new@@ 37
odon@@ 37
onion 37
organ@@ 37
oste@@ 37
pedi@@ 37
plexus 37
price 37
psycho@@ 37
rack 37
red-@@ 37
rine 37
royal 37
s' 37
secretary 37
sex 37
sexual 37
she@@ 37
smo@@ 37
soph@@ 37
spe@@ 37
spot 37
string 37
sum@@ 37
tan 37
television 37
tuber@@ 37
tus@@ 37
ugh@@ 37
vulgaris 37
wax 37
za 37
aer@@ 36
all 36
analysis 36
birch 36
bis@@ 36
brush 36
buck@@ 36
butterfly 36
cau@@ 36
cet@@ 36
cow@@ 36
ction 36
cub@@ 36
cular 36
dom 36
ear 36
egg 36
ental 36
eti@@ 36
fluor@@ 36
front 36
glut@@ 36
hippo@@ 36
hon@@ 36
iling 36
industry 36
little 36
long 36
maj@@ 36
minor 36
myr@@ 36
nat@@ 36
ov@@ 36
pac@@ 36
pes 36
resi@@ 36
roph@@ 36
run@@ 36
rus@@ 36
rush 36
semi@@ 36
sound 36
spanish 36
speci@@ 36
standard 36
stitch 36
telephone 36
thistle 36
ware 36
year 36
-up 35
amine 35
amphi@@ 35
ash@@ 35
ath 35
boo@@ 35
bottle 35
bridge 35
cad@@ 35
cast@@ 35
charge 35
chic@@ 35
co 35
color@@ 35
comm@@ 35
coo@@ 35
cran@@ 35
d's 35
del@@ 35
eter 35
fera 35
film 35
gold 35
government 35
hound 35
ile@@ 35
inae 35
kal@@ 35
kar@@ 35
lead 35
legal 35
ll 35
loo@@ 35
marsh 35
may@@ 35
mill@@ 35
mine 35
monkey 35
musical 35
nas@@ 35
noc@@ 35
ocy@@ 35
pad@@ 35
personal 35
platy@@ 35
player 35
poppy 35
principle 35
radio 35
rhin@@ 35
sau@@ 35
show 35
sine 35
small 35
spotted 35
thri@@ 35
tial 35
tica 35
tie 35
tile 35
uck@@ 35
ulata 35
winter 35
acet@@ 34
alba 34
amar@@ 34
ane 34
arti@@ 34
baby 34
base 34
bleness 34
bom@@ 34
calendar 34
clu@@ 34
correlation 34
dd@@ 34
dress 34
ectomy 34
fel@@ 34
fen@@ 34
gle@@ 34
gon 34
hair@@ 34
hat@@ 34
jac@@ 34
jer@@ 34
lea 34
loan 34
logical 34
melo@@ 34
milli@@ 34
mouth 34
myx@@ 34
nig@@ 34
nuclear 34
ole 34
penstemon 34
phi@@ 34
phyllo@@ 34
picture 34
police 34
primary 34
rid@@ 34
round 34
salad 34
salix 34
scri@@ 34
seal 34
sex@@ 34
soft 34
solar 34
south 34
storm 34
structure 34
tedness 34
tes@@ 34
valve 34
ves@@ 34
ward 34
wheat 34
wn 34
woo@@ 34
-leaved 33
ai 33
ali@@ 33
alness 33
arum 33
ast 33
ator@@ 33
bed@@ 33
birth 33
bium 33
bow@@ 33
cold 33
conf@@ 33
cou@@ 33
cress 33
cry@@ 33
cs 33
current 33
date 33
doc@@ 33
dum@@ 33
elling 33
eng@@ 33
fol@@ 33
for 33
health 33
icum 33
iler 33
imper@@ 33
ish@@ 33
ita 33
leuc@@ 33
lipo@@ 33
man's 33
meat 33
myo@@ 33
nap@@ 33
nation 33
nis 33
ocephal@@ 33
onal 33
ope 33
ophora 33
phos@@ 33
poda 33
processing 33
q@@ 33
reflex 33
ria 33
roman@@ 33
roo@@ 33
salt 33
sat@@ 33
sheep 33
shoe 33
steak 33
sting 33
tar 33
third 33
tone 33
tongue 33
tub@@ 33
tum 33
ularia 33
vus 33
aca 32
al-@@ 32
and-@@ 32
ariaceae 32
atidae 32
australian 32
bag@@ 32
basket 32
bath 32
bay 32
beef 32
begonia 32
blight 32
bo 32
br@@ 32
butter 32
canadensis 32
cell@@ 32
civil 32
cola 32
compound 32
contract 32
cypress 32
dacty@@ 32
dea 32
deck 32
deli@@ 32
dian 32
disk 32
disp@@ 32
drac@@ 32
duck 32
east 32
elle 32
elm 32
eph@@ 32
etic 32
euro@@ 32
fiber 32
fir 32
fix@@ 32
fur@@ 32
gastro@@ 32
gene 32
german 32
grand 32
grape 32
hen 32
holy 32
inc@@ 32
lady 32
last 32
leuco@@ 32
lite 32
logic 32
mallow 32
mani@@ 32
mint 32
north 32
note 32
o-@@ 32
off 32
osus 32
phase 32
pidae 32
political 32
protein 32
sati@@ 32
seat 32
sign 32
speech 32
spi@@ 32
sten@@ 32
storage 32
tiv@@ 32
tonia 32
vil@@ 32
watch 32
wri@@ 32
-and-@@ 31
ado@@ 31
alty 31
amin@@ 31
ani 31
army 31
au 31
aw@@ 31
away 31
broad@@ 31
building 31
capit@@ 31
chocolate 31
city 31
cle 31
coal 31
colo@@ 31
communication 31
cop@@ 31
country 31
dac@@ 31
deer 31
diplo@@ 31
dish 31
drive 31
electrical 31
farm 31
fet@@ 31
flag 31
folium 31
gast@@ 31
gear 31
hen@@ 31
holder 31
hormone 31
iana 31
ion@@ 31
knot 31
lati@@ 31
lity 31
long@@ 31
lymph@@ 31
magne@@ 31
male 31
med@@ 31
mic 31
naval 31
ned 31
omy@@ 31
onist 31
ony 31
oral 31
phylum 31
physi@@ 31
pilot 31
plan 31
pump 31
range 31
reed 31
ro 31
rubber 31
scor@@ 31
sep@@ 31
sim@@ 31
sl@@ 31
soli@@ 31
squirrel 31
stal@@ 31
stop 31
store 31
sun 31
swe@@ 31
tent 31
thre@@ 31
tissue 31
top@@ 31
tum@@ 31
uck 31
vent@@ 31
vision 31
whale 31
wl 31
work@@ 31
xanth@@ 31
zation 31
-of-@@ 30
3@@ 30
ada 30
aking 30
als 30
ama 30
amo@@ 30
anda 30
ang 30
anim@@ 30
anum 30
atri@@ 30
att@@ 30
ature 30
balance 30
barb@@ 30
basi@@ 30
beech 30
bol@@ 30
chamber 30
change 30
chem@@ 30
child 30
cock 30
corn@@ 30
counter 30
cover 30
crac@@ 30
crown 30
cum@@ 30
dge 30
dressing 30
economic 30
erythro@@ 30
eta 30
ffle 30
fin 30
flam@@ 30
foli@@ 30
fron@@ 30
fus@@ 30
get@@ 30
goo@@ 30
hour 30
iidae 30
immuno@@ 30
inidae 30
keeper 30
kle 30
ligh@@ 30
lime 30
mal 30
maple 30
mate 30
mexican 30
mustard 30
nose 30
ography 30
oper@@ 30
period 30
pha 30
plac@@ 30
pli@@ 30
port 30
print 30
psych@@ 30
pt@@ 30
quad@@ 30
religious 30
rium 30
screw 30
sinus 30
ski@@ 30
southern 30
special 30
superior 30
surgery 30
sus@@ 30
tail@@ 30
ticket 30
ticus 30
tle@@ 30
ump 30
virgin@@ 30
visual 30
xy@@ 30
zia 30
zing 30
aver@@ 29
bal 29
beer 29
bell@@ 29
bler 29
blue@@ 29
book@@ 29
cactus 29
caly@@ 29
cavity 29
chloride 29
cili@@ 29
clock 29
coccus 29
cone 29
dasy@@ 29
direct 29
domin@@ 29
dum 29
duty 29
ean 29
eller 29
eman 29
eo@@ 29
equipment 29
ete 29
ex 29
fibro@@ 29
flat@@ 29
fum@@ 29
gin@@ 29
greek 29
hus@@ 29
hymen@@ 29
ie 29
inferior 29
iri@@ 29
ked 29
ki 29
kn@@ 29
law@@ 29
lepto@@ 29
liber@@ 29
liqu@@ 29
meadow 29
meli@@ 29
mig@@ 29
mission 29
nam@@ 29
native 29
neck 29
pet 29
petro@@ 29
pit 29
play@@ 29
printing 29
property 29
radical 29
schiz@@ 29
sec@@ 29
short 29
soci@@ 29
soil 29
stroke 29
summer 29
tant 29
three-@@ 29
ti 29
tivity 29
ulatus 29
ulo@@ 29
union 29
value 29
vas@@ 29
ven 29
via 29
vitamin 29
ado 28
ail 28
alcohol 28
alpine 28
angi@@ 28
anterior 28
ater 28
belt 28
blind 28
bott@@ 28
bron@@ 28
bry@@ 28
cal 28
carpus 28
cart 28
chap@@ 28
chia 28
commission 28
cord 28
cow 28
cut 28
day@@ 28
de-@@ 28
dead 28
degree 28
dle@@ 28
dock 28
ecto@@ 28
element 28
ere 28
etus 28
form@@ 28
gener@@ 28
geranium 28
gloss@@ 28
goose 28
haw@@ 28
idness 28
int 28
inte@@ 28
iron@@ 28
kno@@ 28
lemon 28
litis 28
lob@@ 28
megal@@ 28
mother 28
nau@@ 28
och@@ 28
omycetes 28
ore@@ 28
pay@@ 28
pes@@ 28
physical 28
pol@@ 28
printer 28
rap@@ 28
raph@@ 28
rest 28
rose@@ 28
scre@@ 28
silver@@ 28
spic@@ 28
surface 28
tape 28
thus 28
toad 28
toxin 28
tter 28
two-@@ 28
und 28
vir@@ 28
visi@@ 28
weather 28
white-@@ 28
wire 28
wrench 28
6 27
activity 27
ade@@ 27
appro@@ 27
ariidae 27
arm@@ 27
bacteria 27
band@@ 27
blood@@ 27
brac@@ 27
carbon 27
cast 27
cephalus 27
chest 27
chief 27
cloud 27
clover 27
coron@@ 27
cost 27
cour@@ 27
cross@@ 27
cus@@ 27
cycle 27
dal 27
dancing 27
dendron 27
diabetes 27
dish@@ 27
drill 27
driver 27
dynasty 27
ellus 27
ery@@ 27
escence 27
fig 27
fis@@ 27
flight 27
flowering 27
foot@@ 27
function 27
gle 27
gli@@ 27
glycer@@ 27
gol@@ 27
grapher 27
homo@@ 27
hop 27
index 27
infection 27
ins 27
insect 27
internal 27
ire@@ 27
jet 27
ji@@ 27
kel@@ 27
ken 27
lea@@ 27
lesser 27
lian 27
loc@@ 27
lot 27
mammal 27
matter 27
mill 27
neo@@ 27
nitro@@ 27
nut@@ 27
ome 27
omys 27
onom@@ 27
orth@@ 27
pres@@ 27
py 27
rabbit 27
rain 27
read@@ 27
research 27
river 27
sacchar@@ 27
sales 27
salmon 27
scope 27
screen 27
sed 27
sensi@@ 27
sider@@ 27
signal 27
soc@@ 27
spider 27
spir@@ 27
spiri@@ 27
staff 27
stoc@@ 27
strawberry 27
strip 27
suff@@ 27
tennis 27
tobacco 27
train 27
tual 27
ug@@ 27
vet@@ 27
wash@@ 27
wo@@ 27
zy@@ 27
4 26
5 26
8 26
acar@@ 26
acus 26
acute 26
aker 26
allium 26
alop@@ 26
alter@@ 26
anger 26
angu@@ 26
annu@@ 26
arbor@@ 26
are 26
arity 26
assa@@ 26
aw 26
beam 26
belli@@ 26
bing 26
bog 26
bour@@ 26
broom 26
camera 26
cidae 26
cl@@ 26
clothes 26
coefficient 26
cum 26
cun@@ 26
dental 26
derma 26
dol@@ 26
dun@@ 26
dust 26
earth@@ 26
eer 26
ell 26
endo@@ 26
fem@@ 26
fish@@ 26
foo@@ 26
fund 26
gence 26
gig@@ 26
ha 26
hall 26
ham 26
heath 26
high-@@ 26
hur@@ 26
ich@@ 26
idaceae 26
ifolia 26
ilia 26
inde@@ 26
information 26
ining 26
inten@@ 26
jum@@ 26
key@@ 26
ky@@ 26
leg 26
lip 26
louse 26
low-@@ 26
lower 26
nal 26
nephro@@ 26
omet@@ 26
ophthal@@ 26
opo@@ 26
oyster 26
pale@@ 26
pitch 26
product 26
prof@@ 26
pseud@@ 26
psy@@ 26
pum@@ 26
quo@@ 26
rea 26
rela@@ 26
resin 26
rod 26
rot 26
rot@@ 26
run 26
sale 26
serv@@ 26
shock 26
shor@@ 26
sing@@ 26
ski 26
soda 26
spon@@ 26
stop@@ 26
tary 26
tch 26
term 26
thermometer 26
ties 26
truck 26
turtle 26
ulum 26
under 26
user 26
vac@@ 26
vag@@ 26
veness 26
very 26
vian 26
whe@@ 26
wre@@ 26
4@@ 25
ader 25
after@@ 25
ago 25
anemia 25
ania 25
anthemum 25
anthes 25
aphasia 25
ara 25
astro@@ 25
atro@@ 25
attack 25
audi@@ 25
blu@@ 25
bra 25
bull 25
cancer 25
cari@@ 25
cere@@ 25
cerebral 25
chestnut 25
chi 25
christmas 25
chry@@ 25
cing 25
complex 25
cost@@ 25
culture 25
cyno@@ 25
decimal 25
div@@ 25
diver@@ 25
down@@ 25
drum 25
elia 25
elus 25
emp@@ 25
entation 25
epic@@ 25
eto@@ 25
full 25
gger 25
golf 25
half-@@ 25
holo@@ 25
igh@@ 25
inger 25
inia 25
irish 25
iti@@ 25
junction 25
lisation 25
lization 25
lock@@ 25
loph@@ 25
making 25
mat 25
matrix 25
metry 25
middle 25
mon 25
num 25
nyc@@ 25
ocyte 25
odontidae 25
opathy 25
ophy@@ 25
opter@@ 25
particle 25
plic@@ 25
prin@@ 25
radio@@ 25
rece@@ 25
regul@@ 25
rica 25
ror@@ 25
row 25
sad@@ 25
seri@@ 25
si 25
six@@ 25
snow 25
sonia 25
spas@@ 25
spirit 25
spruce 25
squash 25
tank 25
tex@@ 25
ther 25
tina 25
town 25
traffic 25
trial 25
tude 25
usa 25
vel 25
wagon 25
waste 25
well 25
whip@@ 25
wit@@ 25
x-@@ 25
'-@@ 24
ace 24
ack@@ 24
aen@@ 24
anemone 24
ard@@ 24
at-@@ 24
atom@@ 24
bacter@@ 24
bane 24
bear@@ 24
beard 24
boot 24
bottom 24
butter@@ 24
button 24
camp 24
capital 24
carpet 24
cerat@@ 24
chec@@ 24
chil@@ 24
circle 24
creeping 24
d'@@ 24
dent 24
direc@@ 24
disc 24
dism 24
door@@ 24
dor 24
ductor 24
effect 24
ei@@ 24
ense 24
ento@@ 24
euphorbia 24
ey 24
fall 24
fan 24
fat 24
feather 24
ffer 24
finger 24
finger@@ 24
floor 24
folius 24
fox 24
frequency 24
garlic 24
gom@@ 24
gut@@ 24
hemi@@ 24
hip@@ 24
his@@ 24
honeysuckle 24
hook 24
icul@@ 24
iscus 24
ized 24
lettuce 24
li 24
lith@@ 24
loma 24
long-@@ 24
lotus 24
main 24
marriage 24
mec@@ 24
meth@@ 24
mid-@@ 24
mili@@ 24
moon@@ 24
motor@@ 24
myco@@ 24
needle 24
nic 24
object 24
olus 24
ong 24
open@@ 24
ophyta 24
opsida 24
orus 24
oscope 24
pack 24
paris 24
patri@@ 24
phil@@ 24
pid 24
pleuro@@ 24
pom@@ 24
psychology 24
pudding 24
quet 24
record 24
rhus 24
ri 24
rock@@ 24
rubus 24
sax@@ 24
sni@@ 24
song 24
spermum 24
stock@@ 24
stra 24
ten 24
theater 24
thir@@ 24
tide 24
tomato 24
tract 24
tv 24
uca 24
ul 24
uridae 24
usness 24
vesi@@ 24
wedding 24
whole 24
wolf 24
writing 24
zoo@@ 24
3 23
act 23
agreement 23
all@@ 23
amus 23
ani@@ 23
ann@@ 23
anti-@@ 23
ap 23
ari 23
arm 23
arts 23
ascen@@ 23
ation@@ 23
atlantic 23
auditory 23
beauty 23
bes@@ 23
black-@@ 23
blan@@ 23
bling 23
casu@@ 23
cent 23
chloro@@ 23
def@@ 23
dent@@ 23
diet 23
digit@@ 23
duct 23
eagle 23
encephalitis 23
eration 23
figure 23
flat 23
fly@@ 23
folk 23
formation 23
franc 23
fro@@ 23
gang@@ 23
gastric 23
gi 23
gin 23
grade 23
gum@@ 23
hab@@ 23
hog 23
hold 23
holly 23
hydrochloride 23
ias 23
idal 23
juice 23
ku@@ 23
landing 23
laurel 23
leader 23
league 23
legi@@ 23
lepid@@ 23
litho@@ 23
liver 23
lli@@ 23
lobium 23
mom@@ 23
myri@@ 23
neg@@ 23
nes@@ 23
nettle 23
news 23
nom@@ 23
notation 23
nucle@@ 23
open 23
optical 23
pack@@ 23
pae@@ 23
pal 23
penn@@ 23
people 23
personality 23
piano 23
potassium 23
ptera 23
reading 23
regi@@ 23
respiratory 23
rever@@ 23
roof 23
running 23
russian 23
saddle 23
saint 23
school@@ 23
scotch 23
sel 23
sequ@@ 23
show@@ 23
sight 23
sium 23
soap 23
solanum 23
step 23
stes 23
ston@@ 23
style 23
support 23
sweet@@ 23
swi@@ 23
tain@@ 23
tamar@@ 23
tee 23
temporal 23
thrombo@@ 23
tionist 23
ucle@@ 23
verse 23
vesti@@ 23
wag@@ 23
wear 23
working 23
-off 22
0s 22
acoustic 22
active 22
aena 22
alder 22
alec@@ 22
americanus 22
anaemia 22
asper@@ 22
avi@@ 22
axis 22
baseball 22
battery 22
beach 22
beta 22
bladder 22
brachy@@ 22
brass 22
brassica 22
break 22
cape 22
cav@@ 22
cement 22
ces 22
chas@@ 22
chat@@ 22
chemistry 22
chet 22
chip 22
cian 22
circum@@ 22
citrus 22
climbing 22
command 22
conce@@ 22
cookie 22
delivery 22
desert 22
di 22
dip@@ 22
disc@@ 22
dist 22
doli@@ 22
domestic 22
duction 22
edness 22
egg@@ 22
enia 22
ep 22
erer 22
eris 22
error 22
estate 22
ety 22
eucalyptus 22
eury@@ 22
fiel@@ 22
fig@@ 22
financial 22
flex@@ 22
flow 22
fold 22
formis 22
four-@@ 22
fowl 22
gaz@@ 22
gee 22
goat 22
grav@@ 22
haemo@@ 22
hawk 22
hot@@ 22
ies 22
italian 22
judgment 22
kan@@ 22
kia 22
ko 22
lac 22
lage 22
latin 22
lative 22
liner 22
liquid 22
living 22
liz@@ 22
loid 22
lor 22
maxim@@ 22
medium 22
melan@@ 22
mile 22
mini@@ 22
mir@@ 22
moon 22
mys 22
nail 22
nea 22
ock 22
oe@@ 22
officinalis 22
om 22
oning 22
orig@@ 22
ose 22
ot@@ 22
param@@ 22
pen 22
peti@@ 22
phas@@ 22
pigeon 22
plec@@ 22
poin@@ 22
poison 22
port@@ 22
procedure 22
psilo@@ 22
pub@@ 22
punc@@ 22
push@@ 22
quadri@@ 22
retic@@ 22
rice 22
salamander 22
scarlet 22
sem@@ 22
sham@@ 22
sii 22
simple 22
slip 22
stand 22
stem 22
stis 22
straight 22
system@@ 22
ter's 22
ticism 22
track 22
trem@@ 22
trun@@ 22
tta 22
una 22
vegetable 22
viola 22
wage 22
white@@ 22
yellow@@ 22
7 21
7@@ 21
9 21
ab 21
adren@@ 21
aero@@ 21
ain 21
allo@@ 21
anom@@ 21
architecture 21
auri@@ 21
b-@@ 21
bench 21
bid@@ 21
bitter 21
bos 21
bou@@ 21
buffalo 21
cabbage 21
calcium 21
candi@@ 21
carrier 21
cash 21
cassia 21
cation 21
centro@@ 21
cerato@@ 21
ces@@ 21
chlamy@@ 21
coco@@ 21
commercial 21
community 21
contra@@ 21
conven@@ 21
cyc@@ 21
daceae 21
dav@@ 21
dendro@@ 21
dex@@ 21
dial 21
dialect 21
dig@@ 21
double-@@ 21
drawing 21
earth 21
education 21
elder 21
emo@@ 21
entry 21
fa 21
fab@@ 21
fast 21
fault 21
fec@@ 21
female 21
fishing 21
fluid 21
football 21
foreign 21
frame 21
gal 21
gallin@@ 21
gentian 21
german@@ 21
gian 21
gil@@ 21
gir@@ 21
grand@@ 21
graphic 21
gymn@@ 21
hag@@ 21
hali@@ 21
hemo@@ 21
honey 21
horned 21
hunting 21
hydrogen 21
igu@@ 21
inaceae 21
infant 21
itation 21
jury 21
kup 21
lantern 21
large 21
leather 21
leu@@ 21
lica 21
lie@@ 21
liter@@ 21
millet 21
missile 21
net@@ 21
night@@ 21
nin@@ 21
non-@@ 21
ocer@@ 21
orch@@ 21
ow@@ 21
payment 21
person@@ 21
pinn@@ 21
posterior 21
prac@@ 21
quar@@ 21
quarter 21
rage 21
response 21
rhythm 21
roller 21
scar@@ 21
scler@@ 21
sclero@@ 21
script 21
season 21
secre@@ 21
shape 21
sher 21
ship@@ 21
sickness 21
slipper 21
someness 21
soup 21
spinal 21
spurge 21
sso@@ 21
stant 21
stle 21
substance 21
tec@@ 21
tempor@@ 21
tent@@ 21
text 21
thorn 21
tili@@ 21
tower 21
transmission 21
ule@@ 21
ury 21
uti@@ 21
van 21
venae 21
vig@@ 21
viol@@ 21
wa 21
yn@@ 21
zzle 21
aceous 20
acer 20
acle 20
ading 20
administration 20
aid 20
ail@@ 20
ale@@ 20
aling 20
almond 20
alpha 20
amor@@ 20
arab@@ 20
arianism 20
arthro@@ 20
asian 20
aspi@@ 20
atis 20
automatic 20
bec@@ 20
bene@@ 20
bert 20
bia 20
bob@@ 20
bot@@ 20
boy@@ 20
breaker 20
bub@@ 20
bum@@ 20
cable 20
candy 20
centre 20
chidae 20
chrysanthemum 20
cium 20
clematis 20
coach 20
common@@ 20
con 20
contin@@ 20
criminal 20
cross-@@ 20
crystal 20
cyan@@ 20
demon@@ 20
development 20
devil 20
die 20
dir@@ 20
doub@@ 20
dutch 20
eb@@ 20
electron 20
engineer 20
ening 20
enium 20
etes 20
eur 20
exchange 20
executive 20
exo@@ 20
external 20
fat@@ 20
father 20
fid@@ 20
free@@ 20
gad@@ 20
ght 20
glau@@ 20
globulin 20
growth 20
guil@@ 20
gymno@@ 20
hear@@ 20
hinus 20
ichthy@@ 20
ification 20
inal 20
interest 20
ister 20
iter 20
ix 20
ix@@ 20
jasmine 20
kan 20
kilo@@ 20
lace 20
lap@@ 20
leaved 20
lobster 20
maidenhair 20
media 20
melon 20
mentation 20
mole 20
mosch@@ 20
neph@@ 20
nest 20
nigra 20
nov@@ 20
ograph 20
ok@@ 20
operating 20
ordin@@ 20
ornis 20
otus 20
oz@@ 20
pacific 20
paint 20
partic@@ 20
phar@@ 20
phobia 20
phyto@@ 20
pneumonia 20
policy 20
pterus 20
puff@@ 20
q 20
quir@@ 20
rach@@ 20
racing 20
ram 20
rant 20
real 20
reg@@ 20
rhy@@ 20
righ@@ 20
round@@ 20
sail 20
saw@@ 20
secondary 20
see@@ 20
sidae 20
so 20
sour@@ 20
spectrum 20
sphincter 20
splen@@ 20
spore 20
sted 20
strepto@@ 20
stru@@ 20
study 20
stur@@ 20
subdivision 20
tick 20
tico@@ 20
tiger 20
ting@@ 20
tions 20
titude 20
trache@@ 20
trap 20
trumpet 20
tulip 20
turkey 20
turn 20
ual 20
uan 20
ularis 20
ulidae 20
upper 20
ust 20
vehicle 20
vet 20
virginia 20
vity 20
wel 20
wn@@ 20
xia 20
yon 20
zan@@ 20
5@@ 19
8@@ 19
academy 19
adv@@ 19
alk@@ 19
amide 19
angio@@ 19
ao 19
archi@@ 19
argen@@ 19
association 19
aver 19
bacterium 19
balsam 19
banana 19
battle 19
belly 19
bird@@ 19
blast 19
blindness 19
bow 19
break@@ 19
british 19
bureau 19
cardiac 19
caro@@ 19
character 19
chrono@@ 19
cinnamon 19
clam@@ 19
collec@@ 19
combat 19
condition 19
constant 19
cot 19
cranberry 19
curi@@ 19
dacry@@ 19
digital 19
dine 19
dinner 19
distribution 19
draft 19
dru@@ 19
ele 19
encephal@@ 19
epilepsy 19
eri 19
etry 19
eum 19
event 19
fasci@@ 19
fe 19
fied 19
fir@@ 19
flan@@ 19
florum 19
fon@@ 19
four 19
fusion 19
gauge 19
gency 19
genetic 19
gent 19
geometry 19
gium 19
glove 19
gno@@ 19
goldenrod 19
grac@@ 19
gramma 19
greater 19
hard@@ 19
hay@@ 19
hedron 19
hell@@ 19
hemp 19
hickory 19
hier@@ 19
hir@@ 19
horn@@ 19
ifera 19
illi@@ 19
illus 19
indic@@ 19
industrial 19
iner@@ 19
ink 19
ious 19
ithecus 19
ition 19
jec@@ 19
kangaroo 19
kiness 19
kit@@ 19
lady@@ 19
lane 19
left 19
lene 19
leukemia 19
lili@@ 19
ling@@ 19
loqu@@ 19
mach@@ 19
magnolia 19
march 19
marine 19
match 19
meal 19
measure 19
medic@@ 19
meeting 19
membrane 19
men 19
moder@@ 19
mole@@ 19
mony 19
morph@@ 19
myc@@ 19
nervus 19
nurse 19
nymph@@ 19
omyc@@ 19
ophor@@ 19
orchis 19
orn 19
owl 19
pair 19
palae@@ 19
palustris 19
pav@@ 19
ped 19
phyta 19
pill 19
pound 19
private 19
professional 19
prun@@ 19
psis 19
rattlesnake 19
re-@@ 19
reli@@ 19
reserve 19
retro@@ 19
rig 19
rin 19
rite 19
row@@ 19
rud@@ 19
sheep@@ 19
ske@@ 19
smooth 19
sol 19
solution 19
speed 19
spiro@@ 19
sport 19
sses 19
status 19
steam 19
stor 19
story 19
straw 19
sumac 19
sword 19
tailed 19
tall 19
teness 19
tense 19
tery 19
throat 19
thyro@@ 19
tician 19
tine 19
tire 19
tment 19
training 19
transi@@ 19
trin@@ 19
try@@ 19
ulator 19
ulmus 19
uring 19
use@@ 19
uter 19
view 19
vio@@ 19
voice 19
winter@@ 19
wool 19
woolly 19
yellow-@@ 19
yew 19
yx 19
6@@ 18
abilis 18
activ@@ 18
agus 18
aircraft 18
americ@@ 18
anag@@ 18
ante@@ 18
anthropo@@ 18
arcto@@ 18
arium 18
artic@@ 18
asa 18
atism 18
ave 18
baby@@ 18
bent 18
benzo@@ 18
bet 18
blade 18
blen@@ 18
boletus 18
brachi@@ 18
bs 18
builder 18
bund@@ 18
caria 18
celery 18
ceps 18
chin 18
chole@@ 18
chon@@ 18
cis 18
clam 18
cler@@ 18
club@@ 18
co-@@ 18
comple@@ 18
connec@@ 18
consonant 18
continu@@ 18
conve@@ 18
crow@@ 18
cutter 18
delph@@ 18
diction 18
dow@@ 18
dub@@ 18
dul@@ 18
e's 18
ectes 18
egyptian 18
ek 18
engineering 18
entero@@ 18
entum 18
epis@@ 18
eps 18
eral 18
eridae 18
esia 18
examination 18
exercise 18
facial 18
fairy 18
fili@@ 18
fit@@ 18
flour 18
foil 18
found@@ 18
freedom 18
fring@@ 18
gan 18
gidae 18
grin@@ 18
guinea 18
gym@@ 18
habenaria 18
haemat@@ 18
hearing 18
heart@@ 18
hibiscus 18
hin@@ 18
holding 18
hypno@@ 18
ici@@ 18
ido@@ 18
image 18
ites 18
judgement 18
kerato@@ 18
kick 18
kidney 18
kweed 18
lant 18
lateral 18
library 18
line@@ 18
local 18
ly-@@ 18
maid 18
manship 18
marsh@@ 18
mela@@ 18
member 18
mening@@ 18
metabo@@ 18
minim@@ 18
mite 18
mother@@ 18
moun@@ 18
must@@ 18
myrtle 18
negative 18
ney 18
nidae 18
noun 18
odo@@ 18
olatry 18
olive 18
ometry 18
onism 18
ono@@ 18
onyx 18
op 18
ophis 18
ophyceae 18
organic 18
oriental 18
ornith@@ 18
osaur 18
oti@@ 18
peace 18
pear@@ 18
penny 18
phag@@ 18
phorus 18
pile 18
plantain 18
plastic 18
podidae 18
poll@@ 18
practice 18
press@@ 18
pressi@@ 18
profes@@ 18
ptive 18
punch 18
pus@@ 18
pyr@@ 18
quer@@ 18
raceae 18
railroad 18
rain@@ 18
ral@@ 18
raw 18
res 18
return 18
roast 18
role 18
ropo@@ 18
runner 18
rys 18
sag@@ 18
sagit@@ 18
sativa 18
scientist 18
scom@@ 18
scra@@ 18
semin@@ 18
sergeant 18
series 18
shoulder 18
sky@@ 18
sleep 18
smear 18
sour 18
spaniel 18
spike 18
stamp 18
stell@@ 18
stit@@ 18
stration 18
stroph@@ 18
tage 18
talk 18
tance 18
tat@@ 18
taxus 18
team 18
tech@@ 18
teria 18
tering 18
terri@@ 18
than@@ 18
toilet 18
toma 18
tool 18
tour 18
towel 18
tra 18
tress 18
trop@@ 18
try 18
ty-@@ 18
tyran@@ 18
uba 18
ude 18
ument 18
unding 18
unt 18
usti@@ 18
velo@@ 18
vor@@ 18
walking 18
warfare 18
wic@@ 18
won@@ 18
xero@@ 18
10@@ 17
acri@@ 17
ador@@ 17
ager 17
agro@@ 17
ai@@ 17
alb@@ 17
alog 17
alus 17
amer 17
anesthesia 17
arms 17
aro@@ 17
artemisia 17
ass 17
atten@@ 17
aure@@ 17
australis 17
bachelor 17
bacillus 17
basic 17
bast@@ 17
bble 17
bel 17
bi 17
biology 17
brun@@ 17
brus@@ 17
bud 17
caes@@ 17
canal 17
cand@@ 17
cane 17
cardio@@ 17
carriage 17
cattle 17
cebus 17
celi@@ 17
centr@@ 17
child@@ 17
chim@@ 17
china 17
christian 17
ciner@@ 17
clinical 17
clip 17
coast 17
coff@@ 17
colon@@ 17
committee 17
cordi@@ 17
coronary 17
cosmo@@ 17
count 17
craft 17
crataegus 17
dag@@ 17
dead@@ 17
defence 17
deficiency 17
dermat@@ 17
devil's 17
dge@@ 17
doo@@ 17
draw@@ 17
dw@@ 17
echin@@ 17
ef 17
ef@@ 17
eidae 17
expense 17
explosive 17
extra@@ 17
failure 17
fair 17
felis 17
fes@@ 17
flash 17
fli@@ 17
fourth 17
fracture 17
fraxinus 17
fringed 17
fuel 17
g-@@ 17
gale 17
gel@@ 17
genic 17
glossum 17
god 17
goods 17
grain 17
grouse 17
gru@@ 17
hammer 17
hellebor@@ 17
hemlock 17
hi 17
hind@@ 17
hockey 17
home@@ 17
hydri@@ 17
idity 17
investment 17
ishing 17
ishment 17
istic 17
itor 17
japonica 17
job 17
jumping 17
kit 17
knowledge 17
ladder 17
lady's 17
lav@@ 17
lid 17
linear 17
load 17
lonicera 17
lord 17
losa 17
lox@@ 17
lym@@ 17
macy 17
mari@@ 17
marigold 17
masto@@ 17
may 17
mercury 17
minute 17
mo 17
mod@@ 17
moment 17
moor@@ 17
ms 17
mug@@ 17
multiple 17
nations 17
network 17
noo@@ 17
occidentalis 17
oil@@ 17
on-@@ 17
ona 17
onian 17
ood 17
ophi@@ 17
osum 17
pachy@@ 17
parsley 17
pear 17
pepper@@ 17
pez@@ 17
philo@@ 17
phosphate 17
physics 17
pir@@ 17
plex@@ 17
po 17
poisoning 17
prehen@@ 17
program@@ 17
projection 17
queen 17
rail 17
respon@@ 17
ress 17
riding 17
rifle 17
rope 17
ros@@ 17
rosa 17
rust 17
salic@@ 17
sensation 17
sent@@ 17
shan@@ 17
shift 17
shooting 17
silk 17
single 17
sit@@ 17
smut 17
snake@@ 17
society 17
sole@@ 17
son's 17
south@@ 17
sparrow 17
sports 17
stal 17
stance 17
stap@@ 17
stomus 17
striped 17
struc@@ 17
sucker 17
surve@@ 17
switch 17
tata 17
tel@@ 17
temperature 17
tension 17
terer 17
terus 17
texas 17
thing 17
thu@@ 17
tig@@ 17
tonic 17
tram@@ 17
tricho@@ 17
tumor 17
tural 17
turn@@ 17
tz@@ 17
universal 17
ural 17
urer 17
vaccinium 17
val 17
vetch 17
walker 17
warbler 17
wash 17
xis 17
yar@@ 17
yman 17
zo 17
-tailed 16
absolute 16
acum 16
adju@@ 16
advis@@ 16
aeth@@ 16
ag 16
agen@@ 16
albi@@ 16
alphabet 16
ame 16
ander 16
andro@@ 16
anga 16
anian 16
arctos 16
aring 16
arter@@ 16
artificial 16
asplenium 16
ater@@ 16
ativeness 16
aut@@ 16
automobile 16
azo@@ 16
bak@@ 16
ball@@ 16
barbar@@ 16
barrel 16
barrier 16
basketball 16
bearer 16
bian 16
bill@@ 16
bite 16
blow@@ 16
bodi@@ 16
boun@@ 16
bowl 16
bread@@ 16
breast 16
bug@@ 16
burn 16
canada 16
cha 16
change@@ 16
chart 16
chess 16
clerk 16
closed 16
coil 16
college 16
coma 16
conserv@@ 16
consul@@ 16
coph@@ 16
corpor@@ 16
corporation 16
cranial 16
cricket 16
crime 16
cule 16
curve 16
dding 16
dealer 16
deity 16
del 16
demo@@ 16
dency 16
dew 16
diaceae 16
diff@@ 16
display 16
district 16
dive 16
dragon 16
drum@@ 16
dryopteris 16
due 16
easter 16
eating 16
eel 16
eld 16
eleph@@ 16
eline 16
embry@@ 16
emon@@ 16
enic@@ 16
ensi@@ 16
eper 16
es' 16
escens 16
esi@@ 16
esthe@@ 16
etaceae 16
eyed 16
faction 16
fam@@ 16
fav@@ 16
feast 16
fee 16
fence 16
finder 16
fist@@ 16
flagell@@ 16
flux 16
fox@@ 16
frag@@ 16
gage 16
gene@@ 16
gentiana 16
geon 16
gery 16
ges@@ 16
ginger 16
glabra 16
gold@@ 16
gradu@@ 16
guar@@ 16
guer@@ 16
hack@@ 16
had@@ 16
hang@@ 16
hap@@ 16
hare 16
herpes 16
hing@@ 16
hitter 16
honey@@ 16
hospital 16
housing 16
hub@@ 16
hud@@ 16
human@@ 16
hund@@ 16
hydroxy@@ 16
ick 16
idence 16
ididae 16
ight 16
ilis 16
ility 16
illary 16
immune 16
ipomoea 16
ira 16
iro@@ 16
ith 16
jor@@ 16
jump 16
justice 16
kie 16
kingdom 16
lamb 16
lander 16
lathyrus 16
layer 16
license 16
lift 16
lingu@@ 16
lop 16
loss 16
malac@@ 16
margin@@ 16
mask 16
masti@@ 16
matidae 16
mean 16
methyl 16
midae 16
morel 16
mud 16
naceae 16
nid@@ 16
obia 16
obo@@ 16
ody@@ 16
oidea 16
opera 16
ophorus 16
opia 16
opsi@@ 16
orph@@ 16
orrhea 16
osine 16
osoma 16
oxid@@ 16
parth@@ 16
pass 16
pathy 16
pay 16
pee 16
pher@@ 16
phyte 16
plas@@ 16
plut@@ 16
pod@@ 16
poker 16
poplar 16
porus 16
positive 16
pow@@ 16
priv@@ 16
pulmonary 16
quarter@@ 16
radar 16
raff@@ 16
railway 16
ran 16
refle@@ 16
rel@@ 16
resistance 16
revenue 16
rhodo@@ 16
rian 16
rina 16
rna 16
robin 16
rut@@ 16
salv@@ 16
satur@@ 16
sav@@ 16
savings 16
scho@@ 16
senna 16
separ@@ 16
shire 16
shirt 16
short@@ 16
shut@@ 16
sigh@@ 16
silic@@ 16
single-@@ 16
sk 16
skin@@ 16
solid 16
spleenwort 16
split 16
sporidia 16
ssum 16
stam@@ 16
statement 16
stati@@ 16
steno@@ 16
stinking 16
stream 16
stris 16
student 16
sunday 16
sunflower 16
tability 16
take 16
teacher 16
telescope 16
termin@@ 16
therap@@ 16
thin@@ 16
thum@@ 16
tice 16
tification 16
tioner 16
to-@@ 16
toe 16
tox@@ 16
travel 16
troph@@ 16
tympan@@ 16
uation 16
uch 16
uk@@ 16
uma 16
ume 16
un 16
uter@@ 16
vascular 16
verb 16
vis 16
vulgare 16
walnut 16
wast@@ 16
web 16
well@@ 16
whis@@ 16
will 16
wis@@ 16
with@@ 16
writer 16
xy 16
zygo@@ 16
-in 15
-in-@@ 15
/@@ 15
11@@ 15
9@@ 15
abies 15
acetate 15
acid@@ 15
acity 15
agar@@ 15
album 15
alkal@@ 15
allis 15
anatomy 15
antia 15
aor@@ 15
apis 15
appen@@ 15
appli@@ 15
arc 15
archae@@ 15
asiatic 15
ataceae 15
auc@@ 15
aug@@ 15
author@@ 15
autom@@ 15
axe 15
bad 15
bad@@ 15
balaen@@ 15
bandage 15
bber 15
bber@@ 15
bells 15
benefit 15
biological 15
birth@@ 15
biscuit 15
blueberry 15
bor 15
botry@@ 15
box@@ 15
bronze 15
bru@@ 15
buck 15
bur 15
butt 15
campaign 15
canadian 15
capacity 15
cardi@@ 15
cartridge 15
cathar@@ 15
celestial 15
cerco@@ 15
channel 15
chiton 15
chol@@ 15
cision 15
clar@@ 15
clause 15
clim@@ 15
coll@@ 15
commis@@ 15
congress 15
copy 15
corps 15
cortex 15
covering 15
creeper 15
cten@@ 15
cubic 15
cuck@@ 15
culation 15
custom@@ 15
cyon 15
dancer 15
deal 15
deposit 15
depression 15
diap@@ 15
dicot 15
dill@@ 15
din 15
diss@@ 15
dogwood 15
domes@@ 15
dynam@@ 15
ection 15
ed-@@ 15
ei 15
eler 15
elessness 15
eling 15
eme 15
emission 15
entary 15
ern@@ 15
ership 15
esthesia 15
ethy@@ 15
ethyl 15
etum 15
eve 15
evergreen 15
experim@@ 15
exter@@ 15
eye@@ 15
fag@@ 15
fair@@ 15
feed 15
ferti@@ 15
fia 15
final 15
from 15
frontal 15
fter 15
fting 15
galvan@@ 15
gator 15
gau@@ 15
gentian@@ 15
geny 15
get 15
glory 15
gr@@ 15
graph@@ 15
hazel 15
hepati@@ 15
hes@@ 15
hygrophorus 15
hypericum 15
ight@@ 15
ign@@ 15
ilidae 15
immunity 15
incom@@ 15
income 15
ini@@ 15
intern@@ 15
intro@@ 15
iod@@ 15
island 15
itch 15
ivy 15
iza 15
ject 15
jes@@ 15
kitchen 15
knoc@@ 15
kout 15
ks@@ 15
kur@@ 15
lah 15
lasi@@ 15
later@@ 15
leag@@ 15
lilium 15
lip@@ 15
llus 15
log 15
lub@@ 15
lux@@ 15
management 15
map 15
mar 15
maritima 15
marmo@@ 15
mary 15
mast 15
mation 15
matri@@ 15
max@@ 15
mem@@ 15
methy@@ 15
mi 15
mineral 15
modi@@ 15
morning 15
mosa 15
muc@@ 15
myelo@@ 15
nab@@ 15
nasal 15
neigh@@ 15
nightshade 15
no-@@ 15
obacter@@ 15
objec@@ 15
odor@@ 15
omele@@ 15
oner 15
onium 15
operator 15
ophyte 15
optery@@ 15
optic 15
oregon 15
organisation 15
ornitho@@ 15
orship 15
osaurus 15
oscopy 15
ost@@ 15
ostrac@@ 15
our 15
oy@@ 15
page 15
park 15
path 15
pati@@ 15
pend@@ 15
persi@@ 15
phenomenon 15
phili@@ 15
pion 15
pitcher 15
pool 15
popul@@ 15
pped 15
prat@@ 15
pressor 15
profit 15
proof 15
public@@ 15
pyram@@ 15
pyri@@ 15
quantity 15
quarters 15
rau@@ 15
rax 15
reactor 15
reas@@ 15
reference 15
refrac@@ 15
region 15
regular 15
retin@@ 15
reverse 15
rima 15
rist 15
ritis 15
road@@ 15
rou@@ 15
salvia 15
sandwich 15
scand@@ 15
secret 15
shel@@ 15
shrew 15
shrimp 15
sic 15
slu@@ 15
small@@ 15
snap@@ 15
sne@@ 15
sno@@ 15
soap@@ 15
sock 15
software 15
sole 15
som 15
spectro@@ 15
sperm 15
spit@@ 15
sponge 15
spring@@ 15
ssa 15
stand@@ 15
stig@@ 15
strum 15
sut@@ 15
tana 15
tas@@ 15
terrorism 15
theatre 15
thec@@ 15
tilus 15
tiness 15
tionism 15
tip 15
touch 15
treas@@ 15
treasury 15
twenty-@@ 15
uch@@ 15
ult 15
ursus 15
ush 15
uting 15
varic@@ 15
vention 15
vertic@@ 15
vertical 15
ves 15
vin 15
virginiana 15
visco@@ 15
vy 15
walk 15
wan@@ 15
wee@@ 15
wheat@@ 15
witch@@ 15
worship 15
xylo@@ 15
zen 15
' 14
-o@@ 14
abstrac@@ 14
aby@@ 14
acacia 14
academic 14
acia 14
acris 14
adap@@ 14
address 14
aine 14
alea 14
alle@@ 14
aller@@ 14
alligator 14
alveolar 14
amer@@ 14
ammon@@ 14
amper@@ 14
anab@@ 14
anaesthesia 14
anas 14
anidae 14
apter@@ 14
arbit@@ 14
assembly 14
astrum 14
ations 14
avo@@ 14
bah@@ 14
bank@@ 14
bearing 14
bergia 14
betula 14
binary 14
birthday 14
bli@@ 14
boa 14
bolt 14
brow@@ 14
bubble 14
bula 14
buttercup 14
cali@@ 14
campanula 14
cargo 14
carpo@@ 14
catho@@ 14
ced@@ 14
certificate 14
chondri@@ 14
chromo@@ 14
chronic 14
cinia 14
clan@@ 14
clay 14
coag@@ 14
cocktail 14
commun@@ 14
communis 14
conjunc@@ 14
conservation 14
correc@@ 14
cotton@@ 14
cruci@@ 14
cuc@@ 14
cucum@@ 14
cula 14
curtain 14
cyber@@ 14
cyte 14
dactylus 14
dark 14
dat@@ 14
deep 14
defect 14
dence 14
density 14
deoxy@@ 14
depend@@ 14
derm 14
desk 14
devil@@ 14
dichro@@ 14
dictionary 14
dimen@@ 14
director 14
diving 14
downy 14
dye 14
dynamics 14
dys@@ 14
economy 14
een 14
efulness 14
elec@@ 14
ellidae 14
embo@@ 14
eni@@ 14
enidae 14
enne 14
ennial 14
enta 14
ential 14
equus 14
erie 14
erio@@ 14
escul@@ 14
esti@@ 14
eut@@ 14
fellow 14
ficus 14
fight 14
finch 14
flash@@ 14
florida 14
font 14
fool@@ 14
fritillaria 14
fuc@@ 14
fund@@ 14
gab@@ 14
garden@@ 14
geal 14
genital 14
gic 14
ging@@ 14
glandu@@ 14
glomer@@ 14
gonia 14
gorilla 14
grandiflora 14
grat@@ 14
gross 14
gs 14
handle 14
harmon@@ 14
hedge 14
herb 14
hibition 14
histor@@ 14
hotel 14
hygro@@ 14
hylo@@ 14
hyster@@ 14
iation 14
idia 14
idian 14
illing 14
incen@@ 14
indigo 14
inhibitor 14
ino 14
interior 14
io 14
ipo@@ 14
irus 14
issue 14
jar 14
jelly 14
kat@@ 14
ker's 14
kir@@ 14
knee 14
kness 14
ku 14
labi@@ 14
lacto@@ 14
lago 14
lamb@@ 14
lamin@@ 14
lan 14
lance 14
lap 14
lay 14
lay@@ 14
legs 14
lepido@@ 14
lette 14
limit@@ 14
linguistic 14
lobe 14
location 14
locust 14
loop 14
lou@@ 14
lung 14
malignant 14
march@@ 14
mast@@ 14
match@@ 14
matic 14
melli@@ 14
meria 14
metal@@ 14
mination 14
mold 14
month 14
movie 14
mum@@ 14
muscular 14
nel@@ 14
news@@ 14
nico@@ 14
nis@@ 14
nium 14
north@@ 14
nur@@ 14
ocactus 14
ocarp 14
ocean@@ 14
ocephalus 14
ogram 14
oic 14
opel@@ 14
ophile 14
opla@@ 14
option 14
opy@@ 14
or-@@ 14
ority 14
ortho@@ 14
ozo@@ 14
pancre@@ 14
pand@@ 14
pants 14
parti@@ 14
partial 14
passer@@ 14
patent 14
pattern 14
peach 14
perfect 14
petty 14
phan@@ 14
philus 14
phrase 14
phyl@@ 14
phyll@@ 14
pic 14
piness 14
plague 14
plain 14
plex 14
plu@@ 14
pneum@@ 14
poor 14
pork 14
porphy@@ 14
preci@@ 14
present 14
pression 14
production 14
progressive 14
projec@@ 14
ptor 14
pty@@ 14
quil@@ 14
rar@@ 14
rati@@ 14
raz@@ 14
rectus 14
reduc@@ 14
regression 14
relativity 14
rele@@ 14
rhab@@ 14
rhe@@ 14
rich@@ 14
rosis 14
routine 14
rye 14
salt@@ 14
scap@@ 14
scut@@ 14
selec@@ 14
sensory 14
sentence 14
session 14
sever@@ 14
shield 14
sibility 14
sigmo@@ 14
sili@@ 14
skate 14
sky 14
sleeping 14
snap 14
sore 14
sorrel 14
sphaer@@ 14
sphen@@ 14
sphere 14
spoon 14
standing 14
steria 14
strike 14
sty 14
subsi@@ 14
suspen@@ 14
swallow 14
syl@@ 14
symbo@@ 14
t's 14
taceae 14
taker 14
technology 14
tha 14
thought 14
thrush 14
tionary 14
tiousness 14
title 14
tom 14
torial 14
traction 14
tractor 14
trail 14
travel@@ 14
trip 14
trom@@ 14
tto 14
twin@@ 14
ulate 14
uli 14
ull 14
unda 14
undo 14
ung 14
urist 14
usion 14
velvet 14
version 14
vessel 14
viver@@ 14
wart 14
water-@@ 14
whiskey 14
wife 14
works 14
wra@@ 14
wren 14
written 14
wy@@ 14
xen@@ 14
yco@@ 14
yro@@ 14
-a-@@ 13
aba 13
accelerator 13
accessory 13
accounting 13
acry@@ 13
agrostis 13
algia 13
alis@@ 13
alnus 13
amic 13
amp@@ 13
an-@@ 13
analy@@ 13
anch@@ 13
anci@@ 13
ange@@ 13
anis@@ 13
anne@@ 13
anomal@@ 13
anther@@ 13
anthropus 13
aphid 13
appar@@ 13
archy 13
ardia 13
arenaria 13
arin 13
arrow@@ 13
arsen@@ 13
arvensis 13
asparagus 13
aspen 13
assia 13
aster@@ 13
atar@@ 13
athy@@ 13
ationist 13
attorney 13
augu@@ 13
aur@@ 13
auric@@ 13
auto 13
auxiliary 13
azine 13
balloon 13
bam@@ 13
banded 13
being 13
bend 13
bid 13
bir@@ 13
bitter@@ 13
blon@@ 13
bola 13
boom 13
bracket 13
bram@@ 13
branch 13
breach 13
breaking 13
breathing 13
bufo 13
bulb 13
burg 13
cabinet 13
caff@@ 13
calam@@ 13
californic@@ 13
campe@@ 13
canis 13
cannab@@ 13
cardin@@ 13
carolina 13
carp 13
cary@@ 13
catholic 13
cedrus 13
cellulose 13
cervical 13
chilo@@ 13
chop@@ 13
christ@@ 13
chrome 13
ci 13
cia 13
cinc@@ 13
cis@@ 13
civi@@ 13
claim 13
classi@@ 13
classical 13
clean@@ 13
close@@ 13
coccy@@ 13
cognitive 13
colic 13
collection 13
collector 13
colub@@ 13
come 13
comfor@@ 13
compass 13
condi@@ 13
construc@@ 13
converter 13
cool@@ 13
copper 13
corpus 13
corru@@ 13
crimin@@ 13
crocodi@@ 13
cros@@ 13
crow 13
crown@@ 13
culus 13
cutting 13
cyn@@ 13
cyprin@@ 13
dactylo@@ 13
decor@@ 13
desmo@@ 13
devi@@ 13
dies@@ 13
differential 13
dii 13
diness 13
dion 13
dirty 13
discharge 13
dise@@ 13
dissi@@ 13
dna 13
do-@@ 13
dram@@ 13
eberry 13
edible 13
editor 13
egre@@ 13
eigh@@ 13
eland 13
ember 13
employment 13
entom@@ 13
ephemer@@ 13
epigast@@ 13
erec@@ 13
esophag@@ 13
eum@@ 13
euph@@ 13
even@@ 13
exist@@ 13
expedi@@ 13
extension 13
facility 13
fact 13
fare 13
fas@@ 13
firm 13
flame 13
flow@@ 13
foeti@@ 13
ford 13
forest 13
formic@@ 13
four@@ 13
fraud 13
fru@@ 13
func@@ 13
furnace 13
fut@@ 13
gat@@ 13
gens 13
ggle 13
goat@@ 13
goth@@ 13
grandi@@ 13
granulo@@ 13
haemato@@ 13
haw 13
haz@@ 13
heating 13
heavy 13
hip 13
history 13
hit 13
honor 13
hop@@ 13
hyacinth 13
hydraulic 13
ice-@@ 13
ifer@@ 13
inian 13
inoc@@ 13
insi@@ 13
instal@@ 13
insu@@ 13
interpre@@ 13
intra@@ 13
irri@@ 13
isi@@ 13
izing 13
jub@@ 13
judicial 13
junior 13
kho@@ 13
killer 13
kis@@ 13
kiss 13
kling 13
labial 13
laev@@ 13
lag@@ 13
lagin@@ 13
lake 13
laun@@ 13
laz@@ 13
least 13
leather@@ 13
lee 13
lesson 13
lieutenant 13
live 13
lumber@@ 13
lynx 13
lysi@@ 13
lysis 13
mackerel 13
magic 13
magnoli@@ 13
mangan@@ 13
map@@ 13
mas 13
mathematical 13
mechanical 13
medal 13
melano@@ 13
memor@@ 13
mentary 13
metho@@ 13
metric 13
mexic@@ 13
milkweed 13
mim@@ 13
mium 13
mix@@ 13
modern 13
molo@@ 13
mongo@@ 13
monitor 13
muco@@ 13
musk 13
navy 13
neck@@ 13
nervous 13
neut@@ 13
noise 13
nomin@@ 13
nop@@ 13
normal@@ 13
obe 13
octo@@ 13
odacty@@ 13
odle 13
ological 13
olym@@ 13
ome@@ 13
ometric 13
omorph@@ 13
onus 13
oon 13
open-@@ 13
ophobia 13
order@@ 13
orthop@@ 13
over 13
pain 13
paleo@@ 13
palli@@ 13
patch 13
pedic@@ 13
pencil 13
penia 13
perception 13
perch 13
pernic@@ 13
personnel 13
phaga 13
pharyn@@ 13
philosoph@@ 13
pholiota 13
phora 13
phth@@ 13
pilo@@ 13
pis 13
pithecus 13
plug 13
podocarpus 13
poec@@ 13
polygon@@ 13
pond 13
populus 13
possession 13
poster 13
potamo@@ 13
pregnancy 13
princi@@ 13
prob@@ 13
prom@@ 13
propri@@ 13
pyc@@ 13
pyre@@ 13
question 13
quet@@ 13
quic@@ 13
rab@@ 13
rana 13
rank 13
ranunculus 13
relative 13
renal 13
representation 13
retirement 13
revol@@ 13
rheum@@ 13
ribbon 13
rican@@ 13
rix 13
roc@@ 13
s. 13
sack 13
sausage 13
scen@@ 13
scopy 13
scription 13
scus 13
search 13
sen 13
seness 13
sera 13
shaft 13
shoo@@ 13
shop@@ 13
shower 13
sick 13
sid 13
sida 13
sioner 13
slave 13
slide 13
source 13
spac@@ 13
spen@@ 13
spice 13
spla@@ 13
squar@@ 13
squir@@ 13
stabili@@ 13
stachys 13
staphylo@@ 13
start 13
starting 13
stomach 13
stool 13
swan 13
swiss 13
tad@@ 13
tai 13
taking 13
target 13
tari@@ 13
teas@@ 13
tel 13
tender@@ 13
terminal 13
tfulness 13
thamnus 13
timate 13
tionality 13
titan@@ 13
tol@@ 13
toy 13
transfer 13
tre 13
triangle 13
twel@@ 13
ud 13
uff@@ 13
uli@@ 13
ull@@ 13
ultra@@ 13
uran@@ 13
uration 13
usal 13
vaccin@@ 13
vacuum 13
veller 13
vic 13
viri@@ 13
vocal 13
vom@@ 13
voting 13
warning 13
wasp 13
web@@ 13
whor@@ 13
wire@@ 13
witness 13
year@@ 13
yor@@ 13
yucca 13
zel 13
zinc 13
zoan 13
abdominal 12
aber@@ 12
absorption 12
abuse 12
acetic 12
aceus 12
aching 12
acidae 12
acon@@ 12
adam@@ 12
ades 12
adver@@ 12
adverti@@ 12
aemia 12
aes@@ 12
agri@@ 12
ain@@ 12
aire 12
ake@@ 12
alg@@ 12
alpha-@@ 12
alth@@ 12
alum 12
amne@@ 12
anap@@ 12
anchor 12
ane@@ 12
angular 12
anni@@ 12
ano 12
antha 12
apar@@ 12
ape 12
apor@@ 12
apparatus 12
appe@@ 12
apple@@ 12
application 12
argy@@ 12
article 12
articulatio 12
artist 12
asci@@ 12
asclepias 12
assistant 12
associ@@ 12
asy 12
aticus 12
ayan 12
balm 12
balsam@@ 12
bap@@ 12
baptist 12
barium 12
barn 12
basin 12
bastard 12
bathy@@ 12
bermuda 12
bicycle 12
bital 12
bius 12
blow 12
bombyc@@ 12
borealis 12
bowling 12
branchi@@ 12
breakfast 12
buffer 12
buoy 12
burg@@ 12
burner 12
caceae 12
californica 12
calo@@ 12
canary 12
candle@@ 12
caper 12
carbon@@ 12
carbonate 12
carchar@@ 12
cardinal 12
carpa 12
carya 12
cas 12
casting 12
cata 12
catfish 12
cec@@ 12
cel 12
centri@@ 12
chamaele@@ 12
characteristic 12
chat 12
chenopodium 12
chilean 12
chit@@ 12
chthys 12
closet 12
clusion 12
cod@@ 12
cogn@@ 12
col 12
cole@@ 12
collar 12
collin@@ 12
combin@@ 12
commerce 12
compan@@ 12
compar@@ 12
composi@@ 12
composition 12
condition@@ 12
congre@@ 12
coon 12
core 12
cracker 12
cram@@ 12
creation 12
crepe 12
crested 12
crew 12
crotalus 12
crystal@@ 12
cue 12
cupressus 12
cyanide 12
cypripedium 12
dant 12
database 12
defen@@ 12
dela@@ 12
descen@@ 12
descri@@ 12
desi@@ 12
design@@ 12
determin@@ 12
diagno@@ 12
dication 12
dinosaur 12
divin@@ 12
dler 12
doctrine 12
dontia 12
dop@@ 12
dougla@@ 12
drip 12
dur@@ 12
dystrophy 12
eaceae 12
eas@@ 12
edge 12
effec@@ 12
eh@@ 12
ein 12
election 12
electricity 12
elephant 12
ellip@@ 12
employ@@ 12
encephalon 12
ener 12
enzyme 12
equation 12
equilibrium 12
eras@@ 12
esox 12
estion 12
etales 12
europa@@ 12
evening 12
ever 12
everlasting 12
evidence 12
factory 12
fatty 12
feeding 12
ference 12
fibre 12
fighter 12
filter 12
finance 12
flounder 12
focal 12
former 12
garbage 12
gasoline 12
generation 12
genit@@ 12
gii 12
globe 12
glossus 12
glu@@ 12
gnath@@ 12
goni@@ 12
gourd 12
gown 12
grave@@ 12
grey@@ 12
gur@@ 12
habit@@ 12
hairy 12
heel 12
helo@@ 12
hemato@@ 12
her 12
herring 12
hic@@ 12
hid@@ 12
hil@@ 12
him@@ 12
holiday 12
horsetail 12
hyal@@ 12
ianum 12
icaceae 12
icity 12
identification 12
ider 12
ience 12
ight-@@ 12
iliac 12
ille 12
ilus 12
indirect 12
induc@@ 12
inflam@@ 12
ingu@@ 12
instruction 12
iodo@@ 12
ira@@ 12
isher 12
iss@@ 12
itter 12
jag@@ 12
jav@@ 12
jew@@ 12
jewel@@ 12
june 12
kel 12
kers 12
keto@@ 12
kic@@ 12
kite 12
legia 12
legis@@ 12
len 12
leonto@@ 12
lical 12
lie 12
lling 12
local@@ 12
lori@@ 12
lostom@@ 12
lov@@ 12
lus@@ 12
mahogany 12
malus 12
market@@ 12
mean@@ 12
measuring 12
mechanism 12
merchant 12
meteor@@ 12
milk@@ 12
mind 12
mit 12
monoc@@ 12
mosquito 12
mou@@ 12
moul@@ 12
mous 12
mov@@ 12
mum 12
musi@@ 12
mutual 12
nag@@ 12
nerv@@ 12
newspaper 12
no 12
nosed 12
nucleus 12
obe@@ 12
obli@@ 12
observ@@ 12
oligo@@ 12
olysis 12
oman@@ 12
omum 12
omycota 12
oni 12
ook 12
ophilia 12
ophilus 12
opinion 12
orhynchus 12
orum 12
osauria 12
osauridae 12
osphere 12
packing 12
painting 12
pancake 12
panel 12
paper@@ 12
paradi@@ 12
paria 12
parlor 12
parus 12
past 12
path@@ 12
patrol 12
pau@@ 12
paw 12
pearl 12
pedal 12
penet@@ 12
phaseolus 12
photom@@ 12
phyllaceae 12
physis 12
pia 12
picea 12
picker@@ 12
pier 12
pig 12
piper@@ 12
pistol 12
pium 12
placement 12
plagi@@ 12
pleas@@ 12
pling 12
plus 12
pneumo@@ 12
polar 12
poll 12
pop 12
potential 12
pox 12
ppy 12
precipit@@ 12
pressive 12
prison@@ 12
probosc@@ 12
promis@@ 12
propor@@ 12
pteris 12
purpurea 12
pylor@@ 12
pyrrh@@ 12
quail 12
rability 12
racy 12
raft 12
rail@@ 12
rang@@ 12
recording 12
recur@@ 12
reflec@@ 12
remo@@ 12
reproductive 12
review 12
rhombo@@ 12
rhyn@@ 12
rib@@ 12
rights 12
robu@@ 12
rone 12
rough 12
rough@@ 12
rug 12
rul@@ 12
rying 12
sac 12
salmon@@ 12
san 12
sanc@@ 12
sary 12
satellite 12
saxifrage 12
sca@@ 12
scab@@ 12
schizophrenia 12
sclerosis 12
scorpion 12
screw@@ 12
scrub 12
scur@@ 12
scy@@ 12
seas@@ 12
secon@@ 12
see 12
seed@@ 12
seman@@ 12
senecio 12
serratus 12
sey 12
shepher@@ 12
shin@@ 12
shooter 12
short-@@ 12
silky 12
sional 12
skirt 12
slime 12
smar@@ 12
smi@@ 12
smith 12
soft-@@ 12
soldier 12
some 12
spher@@ 12
spin 12
spoon@@ 12
spora 12
spur 12
st. 12
stall 12
stat 12
static 12
ste 12
stera 12
stew 12
stress 12
stron@@ 12
struthi@@ 12
submarine 12
sulf@@ 12
superfamily 12
supply 12
surgeon 12
surgical 12
swimming 12
tach@@ 12
tain 12
tainment 12
tane@@ 12
tang@@ 12
taxis 12
teres 12
termes 12
tern 12
the-@@ 12
thelypteris 12
theria 12
thermal 12
thia 12
thm 12
thom@@ 12
throw 12
tiaceae 12
tious 12
tish@@ 12
tit@@ 12
tite 12
tization 12
toria 12
tos 12
tosis 12
tow@@ 12
town@@ 12
toxic 12
toxico@@ 12
trading 12
treatment 12
trefoil 12
trench 12
tria 12
trillium 12
trunk 12
ts@@ 12
turus 12
um-@@ 12
umbrella 12
urban 12
urinary 12
urs 12
utility 12
valley 12
valu@@ 12
variable 12
vaso@@ 12
vector 12
venous 12
veronica 12
vertebral 12
veter@@ 12
vice 12
vide@@ 12
vie@@ 12
virginica 12
welsh 12
wet@@ 12
whi@@ 12
witch 12
wler 12
wonder 12
worthiness 12
writ 12
ygo@@ 12
ylon 12
young 12
zig@@ 12
zin@@ 12
zyg@@ 12
's-foot 11
-to-@@ 11
abili@@ 11
abortion 11
absor@@ 11
access 11
acean 11
adhe@@ 11
afro@@ 11
ally 11
aman 11
amb@@ 11
ami 11
amorph@@ 11
amygdal@@ 11
analyst 11
anast@@ 11
andre@@ 11
anem@@ 11
angelica 11
anno@@ 11
ante 11
anthem@@ 11
anthropology 11
anxiety 11
aper 11
apri@@ 11
aqui@@ 11
arach@@ 11
arche@@ 11
arctic 11
ariness 11
arist 11
armill@@ 11
arrow 11
aryn@@ 11
asp@@ 11
ass@@ 11
ateral 11
ati 11
aticum 11
atin 11
atrix 11
aum@@ 11
auranti@@ 11
authority 11
aving 11
aya 11
bach@@ 11
background 11
ballet 11
ballistic 11
barn@@ 11
bay@@ 11
beef@@ 11
bellflower 11
beta-@@ 11
bibli@@ 11
billed 11
biotic 11
bittersweet 11
blasto@@ 11
blin@@ 11
blocker 11
blue-@@ 11
boat@@ 11
boli@@ 11
bomb@@ 11
brace 11
branchia 11
breasted 11
breech@@ 11
brew 11
broad 11
broker 11
buff@@ 11
buster 11
by-@@ 11
caesalpinia 11
calab@@ 11
calamus 11
calculus 11
cannon 11
canthus 11
caprimul@@ 11
carbo@@ 11
caryo@@ 11
catcher 11
categ@@ 11
catus 11
ced 11
cele@@ 11
centaurea 11
chamomile 11
chance 11
charadri@@ 11
chau@@ 11
chee 11
chella 11
chen@@ 11
chiro@@ 11
chium 11
choke 11
christ 11
chytri@@ 11
cigarette 11
cirsium 11
clef 11
colon 11
colored 11
columbi@@ 11
column 11
com 11
comedy 11
compact 11
concent@@ 11
conduc@@ 11
condy@@ 11
confeder@@ 11
conference 11
contem@@ 11
continental 11
contro@@ 11
copy@@ 11
cori@@ 11
corpus@@ 11
cortinarius 11
cot@@ 11
cover@@ 11
crack 11
crin@@ 11
crop 11
crossing 11
curv@@ 11
cust@@ 11
cyri@@ 11
cyst@@ 11
ddle 11
deaf@@ 11
death@@ 11
dedness 11
derer 11
dioxide 11
dip 11
dipter@@ 11
disco@@ 11
distance 11
distin@@ 11
dition 11
dox@@ 11
dwar@@ 11
early 11
eau 11
ech 11
ect 11
eczema 11
edema 11
el-@@ 11
elae@@ 11
en's 11
entrance 11
epid@@ 11
erigeron 11
eship 11
etta 11
eucli@@ 11
euglen@@ 11
euri@@ 11
expan@@ 11
expert 11
expression 11
famili@@ 11
fascic@@ 11
feather@@ 11
feder@@ 11
femor@@ 11
fib@@ 11
filing 11
fine 11
fing@@ 11
fix 11
flag@@ 11
flea 11
flood 11
foet@@ 11
footed 11
formal@@ 11
fossi@@ 11
foster 11
friend@@ 11
future 11
gamy 11
garment 11
gavi@@ 11
ged 11
gho@@ 11
gib@@ 11
gie 11
gift 11
gobi@@ 11
god@@ 11
good-@@ 11
grace 11
gravity 11
guide 11
guine@@ 11
gular 11
guy 11
gyrus 11
hang 11
headed 11
heartedness 11
heater 11
heather 11
heim@@ 11
hell 11
helmet 11
hemorrhagic 11
hexag@@ 11
hoe 11
hog@@ 11
homo 11
hunt 11
hunter 11
hybri@@ 11
hydra@@ 11
hydrangea 11
hynchus 11
ianus 11
iber@@ 11
ican 11
icar@@ 11
igh 11
igni@@ 11
illin 11
imag@@ 11
ime 11
imperial 11
incre@@ 11
indu@@ 11
induction 11
inemia 11
inherit@@ 11
ini 11
institution 11
intestinal 11
inventory 11
invol@@ 11
issus 11
itive 11
ito 11
itys 11
jab@@ 11
jan@@ 11
jar@@ 11
jazz 11
ji 11
jin@@ 11
john's 11
join@@ 11
jour@@ 11
junc@@ 11
juniperus 11
kam@@ 11
keeping 11
kerat@@ 11
kh@@ 11
kid@@ 11
laboratory 11
lace@@ 11
lag 11
lago@@ 11
lanth@@ 11
lawn 11
leading 11
leek 11
lepis 11
lever 11
lien 11
linguistics 11
link 11
literary 11
ller 11
loom 11
lunar 11
mak@@ 11
male@@ 11
mand 11
manual 11
margin 11
marty@@ 11
master@@ 11
materi@@ 11
measure@@ 11
med 11
mentha 11
ments 11
microscope 11
million 11
mindedness 11
mirabilis 11
mis 11
mode 11
modu@@ 11
monger 11
mor 11
mur 11
nai@@ 11
narc@@ 11
naria 11
narrow@@ 11
nav@@ 11
navig@@ 11
ni 11
niger 11
nish 11
node 11
nuisance 11
nutri@@ 11
occup@@ 11
ocele 11
ocor@@ 11
ocytic 11
oda 11
odes 11
odorata 11
offic@@ 11
og@@ 11
ois 11
olens 11
oleracea 11
olo@@ 11
oly@@ 11
on's 11
ons 11
onth 11
oo 11
ophila 11
ophore 11
opoda 11
oration 11
oriented 11
orpha 11
osarcoma 11
osity 11
oth@@ 11
otic 11
oxalis 11
painted 11
palat@@ 11
paras@@ 11
part@@ 11
partner 11
pector@@ 11
ped@@ 11
pelecan@@ 11
pendulum 11
penis 11
peris@@ 11
persian 11
petrol 11
phasi@@ 11
philia 11
philosophy 11
phlox 11
phony 11
phoric 11
phren@@ 11
phro@@ 11
phthal@@ 11
pillow 11
ping@@ 11
pithec@@ 11
plasma 11
plasmo@@ 11
plaster 11
pleasure 11
polar@@ 11
polemon@@ 11
pore 11
porter 11
pos 11
posal 11
post-@@ 11
prayer 11
pressant 11
primrose 11
privet 11
procta 11
produc@@ 11
propan@@ 11
psitt@@ 11
puc@@ 11
pud@@ 11
pulse 11
pulsion 11
pyg@@ 11
pyth@@ 11
quanti@@ 11
quark 11
radial 11
rae 11
rag 11
ragma 11
rainbow 11
rata 11
rating 11
refin@@ 11
rein 11
rene 11
representative 11
reptile 11
revolu@@ 11
rhag@@ 11
rham@@ 11
rhyme 11
ricket@@ 11
rier 11
roach 11
rocky 11
rotary 11
roy@@ 11
sail@@ 11
sarcoma 11
satureja 11
saur 11
savo@@ 11
scis@@ 11
scolo@@ 11
scomber@@ 11
score 11
scorpa@@ 11
scul@@ 11
seab@@ 11
sedge 11
sement 11
senger 11
senior 11
sero@@ 11
serpent@@ 11
services 11
shap@@ 11
shrike 11
side@@ 11
sier 11
silla 11
simul@@ 11
simum 11
siness 11
sionary 11
sitis 11
skunk 11
snail 11
solidago 11
sorghum 11
sp 11
spar 11
speaker 11
spinach 11
spondy@@ 11
squad 11
squee@@ 11
st-@@ 11
stemon 11
stil@@ 11
stimulus 11
stiness 11
stove 11
strac@@ 11
stran@@ 11
strap 11
strateg@@ 11
strus 11
stuffed 11
sud@@ 11
sulfate 11
sulfur 11
sure 11
swoman 11
sylvatica 11
synchron@@ 11
take@@ 11
talis 11
tear@@ 11
teen 11
telegraph 11
temper@@ 11
testud@@ 11
tetrac@@ 11
theast 11
theo@@ 11
thinking 11
thun@@ 11
thysan@@ 11
tian 11
tiana 11
tick@@ 11
tier 11
til 11
tilla 11
tinus 11
tip@@ 11
tisation 11
titis 11
tivism 11
toll 11
tomus 11
total 11
touch@@ 11
tragus 11
transfer@@ 11
trash 11
tricholoma 11
trum 11
two 11
typh@@ 11
tz 11
uci@@ 11
ught 11
uity 11
ularity 11
umbell@@ 11
umin@@ 11
undi@@ 11
urn@@ 11
using 11
ution 11
vapor@@ 11
varieg@@ 11
vea 11
veal 11
veins 11
vil 11
warrant 11
washing 11
wax@@ 11
week 11
wher@@ 11
whip 11
whir@@ 11
whisky 11
wid@@ 11
wild@@ 11
winged 11
wol@@ 11
woman@@ 11
woodsia 11
word@@ 11
wron@@ 11
ws 11
xer@@ 11
yan 11
yan@@ 11
ycin 11
ym 11
zealand 11
zebra 11
zen@@ 11
zon@@ 11
-on@@ 10
-the-@@ 10
about 10
abra@@ 10
accept@@ 10
acher 10
achi@@ 10
achro@@ 10
aci@@ 10
aciousness 10
acule@@ 10
acumin@@ 10
adendron 10
adenia 10
adult 10
aegy@@ 10
african@@ 10
ager@@ 10
agglut@@ 10
ah@@ 10
aked 10
algae 10
alge@@ 10
allus 10
alluvi@@ 10
alogue 10
amaranthus 10
ambi@@ 10
ambul@@ 10
amby@@ 10
amen 10
amen@@ 10
ammo@@ 10
amni@@ 10
amy@@ 10
anaceae 10
anal 10
angel 10
angium 10
anteater 10
anth 10
anthe 10
antin@@ 10
any 10
ao@@ 10
aquatica 10
are@@ 10
argyro@@ 10
arism 10
aristolo@@ 10
arma@@ 10
armed 10
arrangement 10
arrh@@ 10
arthritis 10
asia 10
assign@@ 10
athletic 10
atho@@ 10
atrium 10
aus@@ 10
austr@@ 10
austro@@ 10
badger 10
bamboo 10
ban 10
bang 10
barga@@ 10
barley 10
basidi@@ 10
bath@@ 10
beat 10
beet 10
beggar-@@ 10
benzene 10
big-@@ 10
bike 10
biosis 10
bird's 10
blanket 10
blister 10
bloom@@ 10
boar@@ 10
boarding 10
bombing 10
bon 10
bones 10
bonnet 10
booster 10
brain@@ 10
bration 10
brew@@ 10
bric@@ 10
brick 10
bristle@@ 10
brother 10
bun 10
buty@@ 10
c-@@ 10
cade 10
calochortus 10
candle 10
cant 10
capsicum 10
catal@@ 10
caval@@ 10
cave 10
cem@@ 10
cence 10
center@@ 10
centi@@ 10
cephalo@@ 10
cera 10
ceras@@ 10
cession 10
chama@@ 10
chelys 10
chickweed 10
chig@@ 10
chinensis 10
chman 10
chop 10
chori@@ 10
chri@@ 10
chromosome 10
chrys@@ 10
chy@@ 10
cim@@ 10
cinchona 10
cist 10
cking 10
cleaning 10
coccinea 10
cocco@@ 10
coconut 10
coin 10
colli@@ 10
comb 10
combus@@ 10
coming 10
compen@@ 10
comycetes 10
congo 10
conju@@ 10
constric@@ 10
contact 10
contrace@@ 10
coral@@ 10
credi@@ 10
cren@@ 10
cryp@@ 10
cucurbita 10
cycad@@ 10
cyclic 10
cygnus 10
cylinder 10
cym@@ 10
cystic 10
dair@@ 10
dating 10
dder 10
ddy 10
dean 10
debt 10
decan@@ 10
deer@@ 10
denti@@ 10
der's 10
dera 10
dermatitis 10
detective 10
deuter@@ 10
dg@@ 10
dger 10
diagram 10
dianthus 10
dica 10
dinar 10
dioica 10
dis 10
dolphin 10
dontidae 10
dot 10
drinking 10
driving 10
droom 10
ears 10
eba 10
ece 10
eding 10
educ@@ 10
edulis 10
ela 10
elan@@ 10
elegans 10
elevator 10
elis 10
ellaceae 10
ellia 10
emaker 10
enforcement 10
enli@@ 10
enter 10
epidemic 10
epig@@ 10
eptor 10
equisetum 10
eryth@@ 10
erythrina 10
escape 10
esman 10
establish@@ 10
eupatorium 10
exam@@ 10
exposure 10
face@@ 10
fagus 10
fati@@ 10
feed@@ 10
fen 10
ffin 10
fibri@@ 10
fic 10
fing 10
firing 10
five 10
fixed 10
flax 10
floating 10
florus 10
forces 10
fragrant 10
frat@@ 10
friend 10
fruit@@ 10
fud@@ 10
funeral 10
fuse 10
gall 10
gall@@ 10
gamma 10
gel 10
geor@@ 10
gera 10
geton 10
geum 10
gging 10
gigante@@ 10
ginea 10
gist 10
giving 10
gluco@@ 10
gnathus 10
goer 10
gooseberry 10
gopher 10
gou@@ 10
govern@@ 10
grandis 10
gravit@@ 10
gression 10
gula 10
gyromitra 10
hamameli@@ 10
haplo@@ 10
harmonic 10
has@@ 10
hepatitis 10
het@@ 10
highway 10
hing 10
hob@@ 10
horizontal 10
hot-@@ 10
hydroxide 10
icism 10
icle 10
identity 10
ideus 10
ifolium 10
illidae 10
inage 10
inales 10
inch 10
indica 10
indicator 10
inga 10
inhal@@ 10
inis 10
inism 10
insul@@ 10
interval 10
intment 10
inverse 10
iny 10
ipes 10
ird 10
itri@@ 10
ivory 10
ixodes 10
j 10
jay 10
jection 10
jon@@ 10
jud@@ 10
jungle 10
juniper 10
juvenile 10
k's 10
keye 10
kil@@ 10
kle@@ 10
knight 10
know@@ 10
korean 10
kri@@ 10
lab 10
lacer@@ 10
lagus 10
larch 10
late 10
latry 10
leaf-@@ 10
learning 10
leave 10
lemming 10
leon@@ 10
leop@@ 10
lepi@@ 10
lepiota 10
leum 10
lev@@ 10
lex 10
licence 10
lichen 10
life@@ 10
lightning 10
limit 10
lina 10
liquor 10
loading 10
loaf 10
lobo@@ 10
locomotive 10
logale 10
loin 10
loosestrife 10
losis 10
lupine 10
lyca@@ 10
madagas@@ 10
magnet@@ 10
maiden 10
mail@@ 10
malpigh@@ 10
man-@@ 10
mannia 10
manufac@@ 10
maras@@ 10
mataceae 10
mechan@@ 10
mechanics 10
mediate 10
mediterranean 10
mega@@ 10
mel 10
metre 10
microwave 10
minister 10
mirror 10
mixture 10
mollus@@ 10
mood 10
moral 10
morpha 10
morpho@@ 10
mortgage 10
mouth@@ 10
mytho@@ 10
narco@@ 10
naris 10
narrow 10
nature 10
nee 10
neon@@ 10
neria 10
newton's 10
niaceae 10
nitrate 10
nitrogen 10
nose@@ 10
nym@@ 10
oat 10
oca 10
oden@@ 10
odonto@@ 10
ody 10
oe 10
officinale 10
ogen 10
onii 10
oper 10
operations 10
ophosphate 10
ophyll 10
ophytina 10
opidae 10
opistho@@ 10
oplasty 10
opogon 10
oring 10
orthodox 10
oryz@@ 10
osteo@@ 10
oto@@ 10
ovis 10
oxylon 10
ozoa 10
papaver 10
paral@@ 10
parallel 10
parasi@@ 10
parent 10
parking 10
parlour 10
pas 10
passiflora 10
passive 10
pation 10
peanut 10
pectoral 10
penny@@ 10
perce@@ 10
pericar@@ 10
periodic 10
phe 10
pheno@@ 10
phlebo@@ 10
phyceae 10
phyton 10
pine@@ 10
pipe@@ 10
place@@ 10
planet 10
planning 10
ple-@@ 10
plet 10
plication 10
pment 10
podium 10
pogon 10
pollution 10
pon 10
pony 10
population 10
porcupine 10
portra@@ 10
pose 10
postal 10
poten@@ 10
pper@@ 10
pren@@ 10
presby@@ 10
presi@@ 10
prime 10
prince 10
prince@@ 10
prism 10
privilege 10
programming 10
proli@@ 10
pron@@ 10
propel@@ 10
propen@@ 10
prosop@@ 10
protec@@ 10
psida 10
ptu@@ 10
puden@@ 10
python 10
quartz 10
quick 10
radioactive 10
raising 10
raj@@ 10
raspberry 10
ratic 10
ratio 10
reck@@ 10
reconnaissance 10
redwood 10
relationship 10
relief 10
religi@@ 10
religion 10
ren 10
rence 10
rent 10
report 10
resonance 10
respec@@ 10
ret 10
rh 10
rhinoceros 10
rical 10
rics 10
rider 10
rio 10
roll@@ 10
room@@ 10
ropia 10
rue 10
sacred 10
saff@@ 10
sampling 10
sapro@@ 10
sauc@@ 10
saxifraga 10
scape 10
sch 10
scout 10
scratch 10
sea-@@ 10
secu@@ 10
segre@@ 10
seller 10
senti@@ 10
serial 10
serum 10
ses 10
sevent@@ 10
sha@@ 10
shoe@@ 10
siberian 10
sick@@ 10
sister 10
skeleton 10
skil@@ 10
sma 10
smoke 10
snapper 10
snipe 10
solv@@ 10
spark 10
spermat@@ 10
spiny 10
spur@@ 10
sse 10
ssima 10
stenosis 10
stery 10
sthe@@ 10
stling 10
stocking 10
strian 10
stry 10
stum 10
stus 10
stylo@@ 10
suicide 10
sulphate 10
suture 10
sweat 10
swedish 10
sylvi@@ 10
symplo@@ 10
synap@@ 10
synthe@@ 10
syringa 10
tachy@@ 10
tack@@ 10
tale 10
talinum 10
tanacetum 10
tap 10
taria 10
taste 10
tay@@ 10
technical 10
telo@@ 10
ter-@@ 10
tere@@ 10
terrorist 10
tet 10
thar@@ 10
theca 10
theor@@ 10
thouse 10
threshold 10
thrum 10
thrust 10
tiales 10
ticum 10
tid 10
tii 10
till@@ 10
tinctoria 10
tinia 10
tler 10
tlessness 10
tomys 10
tooth@@ 10
toothed 10
total@@ 10
tout 10
transp@@ 10
transportation 10
tray 10
triple 10
troglodytes 10
tron 10
trophic 10
tropism 10
trout 10
trum@@ 10
truth 10
tsia 10
tsuga 10
tte 10
turdus 10
turnip 10
twin 10
tyro@@ 10
uble 10
uda 10
ulaceae 10
ulatum 10
ulon 10
unciation 10
ungu@@ 10
unic@@ 10
uron@@ 10
uv@@ 10
ux 10
vaccine 10
valuation 10
variola 10
vati@@ 10
venture 10
venus@@ 10
vern@@ 10
vertebra 10
vesper@@ 10
vigna 10
vinyl 10
viral 10
vise 10
vitis 10
vulus 10
vum 10
wand@@ 10
weapon 10
weather@@ 10
wee 10
welfare 10
wet 10
wig@@ 10
wing@@ 10
wom@@ 10
wormwood 10
wright 10
xeno@@ 10
yach@@ 10
yam 10
ycle 10
yellowwood 10
yer@@ 10
yness 10
zamia 10
-out 9
-worship 9
18@@ 9
19@@ 9
absence 9
accipit@@ 9
accommod@@ 9
accoun@@ 9
acer@@ 9
acon 9
actor 9
adeno@@ 9
adow@@ 9
adrenergic 9
adul@@ 9
aepy@@ 9
aerial 9
aeus 9
agave 9
agropyron 9
airplane 9
aki 9
alas@@ 9
alaska 9
albu@@ 9
aler 9
alloy 9
alphab@@ 9
alpina 9
alum@@ 9
aluminum 9
alysis 9
aming 9
ammonium 9
anac@@ 9
ance@@ 9
anchovy 9
andromeda 9
aneous 9
anese 9
anesthetic 9
anglo-@@ 9
ango@@ 9
angusti@@ 9
anise 9
anist 9
antelope 9
antenna 9
anthro@@ 9
antibody 9
antum 9
apricot 9
araucaria 9
ardi@@ 9
arina 9
aris@@ 9
arisation 9
arization 9
armored 9
aspect 9
aspis 9
assu 9
asy@@ 9
atax@@ 9
atch 9
athe@@ 9
athus 9
atica 9
attraction 9
aughter 9
aurus 9
axiom 9
backed 9
bai@@ 9
basal 9
bates 9
bathing 9
battle@@ 9
bead 9
beater 9
belgian 9
ber's 9
berber@@ 9
berg 9
bic 9
bicolor 9
bili@@ 9
billiard 9
biness 9
blank 9
blenni@@ 9
boc@@ 9
boot@@ 9
booth 9
boston 9
bound@@ 9
bour 9
branchio@@ 9
breeding 9
brittle 9
brom@@ 9
brum 9
buckthorn 9
bular 9
bullet 9
burger 9
burial 9
bypass 9
cadmium 9
caerulea 9
callitris 9
calorie 9
camphor 9
canadense 9
capillary 9
capra 9
capri@@ 9
capro@@ 9
capsule 9
caram@@ 9
carcinoma 9
card@@ 9
carduelis 9
carn@@ 9
carni@@ 9
carol@@ 9
carolinensis 9
caroliniana 9
carri@@ 9
castanea 9
catch 9
catech@@ 9
caterpillar 9
cath@@ 9
cela@@ 9
censorship 9
ception 9
cerebri 9
certi@@ 9
cery 9
chaen@@ 9
chamaecy@@ 9
chari@@ 9
cheli@@ 9
chima@@ 9
choice 9
chromat@@ 9
chron@@ 9
chur@@ 9
cich@@ 9
cid 9
circumflex 9
citellus 9
citi@@ 9
cker 9
claw 9
clear@@ 9
cliff 9
clitocybe 9
close 9
clothing 9
cluster 9
clutch 9
cnem@@ 9
cochle@@ 9
coer@@ 9
colap@@ 9
combination 9
communications 9
concern 9
concert 9
concre@@ 9
conden@@ 9
condenser 9
conditioned 9
congenital 9
conjunction 9
constitu@@ 9
coordinate 9
copal 9
corner 9
cornus 9
cornut@@ 9
cosmic 9
coum@@ 9
county 9
crab@@ 9
crash 9
crisp@@ 9
cristata 9
crum@@ 9
crus@@ 9
cuban 9
cularia 9
culosis 9
cultivated 9
cup@@ 9
curren@@ 9
cushion 9
cyano@@ 9
cyst 9
damages 9
dang@@ 9
daph@@ 9
days 9
dder@@ 9
deception 9
deco@@ 9
decre@@ 9
dee 9
deed 9
definition 9
delta 9
delto@@ 9
demi@@ 9
desser@@ 9
detergent 9
diab@@ 9
diag@@ 9
diaph@@ 9
diary 9
dick@@ 9
dicty@@ 9
digit 9
dina 9
ding@@ 9
diplomatic 9
direction 9
dissol@@ 9
divine 9
dome 9
dra 9
drome 9
dron 9
dump 9
dura@@ 9
eared 9
eat@@ 9
ecclesias@@ 9
eck 9
edu@@ 9
ee@@ 9
ega 9
eid 9
elastic 9
electrostatic 9
eless 9
elium 9
elog@@ 9
ember@@ 9
emergency 9
enary 9
ens@@ 9
enterprise 9
entness 9
enus 9
eopsis 9
equivalent 9
erem@@ 9
erian 9
erica 9
ero 9
ert 9
erus 9
escal@@ 9
essential 9
etail 9
eter@@ 9
ethmo@@ 9
ethylene 9
etia 9
etre 9
exam 9
excel@@ 9
execution 9
exten@@ 9
f-@@ 9
falcon@@ 9
fashion 9
feature 9
fice 9
fici@@ 9
fida 9
fif@@ 9
fifth 9
first-@@ 9
flask 9
float 9
flute 9
fore 9
forec@@ 9
fork 9
fortun@@ 9
fortune 9
fossa 9
foster-@@ 9
foxtail 9
frac@@ 9
fraction 9
fresh 9
freshwater 9
frog@@ 9
frost 9
fuch@@ 9
fundamental 9
fur 9
furniture 9
fying 9
gallery 9
gean 9
gele@@ 9
geological 9
germ 9
gibility 9
gill 9
giness 9
glans 9
glass@@ 9
goosefoot 9
graft 9
graphical 9
gravitational 9
gren@@ 9
grove 9
guava 9
guidance 9
guide@@ 9
gull 9
halluc@@ 9
hazard 9
heap 9
helianthus 9
helmin@@ 9
hemat@@ 9
hepat@@ 9
heredi@@ 9
heroic 9
heron 9
hexa@@ 9
himantopus 9
hirsut@@ 9
hooded 9
horizon 9
horten@@ 9
hosti@@ 9
huckleberry 9
hyacin@@ 9
hyem@@ 9
ice@@ 9
iculata 9
idism 9
idium 9
ign 9
ignon 9
imeter 9
implant 9
inclin@@ 9
incon@@ 9
indefin@@ 9
independ@@ 9
individ@@ 9
indus 9
infrared 9
ingia 9
inisation 9
inity 9
inization 9
input 9
insec@@ 9
inspec@@ 9
instruc@@ 9
intel@@ 9
investi@@ 9
iosis 9
isia 9
ission 9
ist's 9
ital 9
itarian 9
itude 9
itus 9
jamaica 9
janus 9
japan 9
jerusalem 9
job@@ 9
john@@ 9
journ@@ 9
junk 9
kaff@@ 9
ke-@@ 9
kea 9
kes 9
knuck@@ 9
kor@@ 9
labor@@ 9
labour 9
labyrinth@@ 9
lactuca 9
laea 9
langu@@ 9
laryn@@ 9
lass 9
laund@@ 9
laur@@ 9
laying 9
lead@@ 9
leaf@@ 9
leishmaniasis 9
lemon@@ 9
leness 9
lent@@ 9
lespedeza 9
lican 9
light@@ 9
lighting 9
ligustrum 9
limno@@ 9
lish@@ 9
litt@@ 9
littor@@ 9
lizer 9
lobelia 9
loco@@ 9
loft 9
lon 9
lorhiza 9
lousness 9
love-@@ 9
ls 9
lubric@@ 9
luggage 9
lutea 9
lycopodium 9
lying 9
lysimachia 9
lytic 9
machin@@ 9
magazine 9
main@@ 9
malv@@ 9
mammu@@ 9
mander 9
mandibular 9
mare 9
marrow 9
marsupi@@ 9
mastigo@@ 9
matism 9
matory 9
mature 9
maxillary 9
menzi@@ 9
mesenter@@ 9
min 9
mining 9
minut@@ 9
mistletoe 9
mness 9
model 9
monarda 9
money@@ 9
montia 9
motive 9
mous@@ 9
muja@@ 9
mulberry 9
mullein 9
murder 9
mustela 9
myrmeco@@ 9
myxobacter@@ 9
nan@@ 9
narrow-leaved 9
natur@@ 9
naz@@ 9
needle@@ 9
neglec@@ 9
nepet@@ 9
ner's 9
nim@@ 9
nist 9
non 9
normal 9
nothofagus 9
notor@@ 9
nursing 9
oan 9
oblast 9
oblastic 9
ocarbon 9
ocarp@@ 9
ocean 9
ocereus 9
octa@@ 9
ocyan@@ 9
od 9
ode 9
odonta 9
odus 9
odytes 9
off-@@ 9
ok 9
olaria 9
old-@@ 9
olfactory 9
omethane 9
omin@@ 9
onis 9
oom 9
oot 9
ophrys 9
opportun@@ 9
opterus 9
orbital 9
orche@@ 9
ordination 9
orhyn@@ 9
orientalis 9
oriole 9
orni@@ 9
oro@@ 9
orrho@@ 9
ostom@@ 9
oxal@@ 9
oxylum 9
paci@@ 9
paint@@ 9
pair@@ 9
pane 9
para 9
parag@@ 9
parliam@@ 9
particip@@ 9
partridge 9
parvi@@ 9
paste 9
patho@@ 9
peac@@ 9
pelli@@ 9
performance 9
perono@@ 9
perus 9
peso 9
peter 9
petit 9
phalar@@ 9
phenyl@@ 9
phium 9
phoenic@@ 9
phoid 9
photographic 9
phry@@ 9
phthalmus 9
phyllocla@@ 9
physalis 9
physiological 9
pian 9
pick@@ 9
pike 9
pimpernel 9
pipistre@@ 9
pizza 9
pkin 9
placentation 9
plain@@ 9
plement 9
pler 9
pline 9
plume 9
pogon@@ 9
pois@@ 9
polish 9
polypody 9
polystichum 9
ponder@@ 9
poon 9
poss@@ 9
possi@@ 9
powder@@ 9
ppa 9
pple 9
president 9
prick@@ 9
prickly 9
pride 9
prison 9
processor 9
propy@@ 9
prov@@ 9
psal@@ 9
pse@@ 9
pseude@@ 9
pseudomon@@ 9
psoph@@ 9
psy 9
psychological 9
pteroc@@ 9
pubescens 9
pulmon@@ 9
puppet 9
purchase 9
purpu@@ 9
put 9
pyrola 9
quality 9
quantum 9
ques@@ 9
quin 9
rabbit@@ 9
racem@@ 9
rage@@ 9
rapid 9
rasian 9
rast@@ 9
razo@@ 9
razor 9
reader 9
receiver 9
reci@@ 9
recon@@ 9
recorder 9
refri@@ 9
register 9
reh@@ 9
relations 9
rement 9
rep@@ 9
repens 9
requi@@ 9
resc@@ 9
rese@@ 9
resource 9
restric@@ 9
rhea 9
rhino@@ 9
rhiza 9
ridge 9
ropogon 9
rotor 9
rotundifolia 9
roxylon 9
rrh@@ 9
rubra 9
sabbati@@ 9
sack@@ 9
salam@@ 9
salis 9
sandpiper 9
sanguin@@ 9
sarrac@@ 9
sash 9
scientific 9
scoly@@ 9
scorpion@@ 9
scot@@ 9
scottish 9
scrip@@ 9
scru@@ 9
se-@@ 9
sed@@ 9
selaginella 9
sempervirens 9
sequo@@ 9
servant 9
server 9
sette 9
setting 9
settlement 9
seven@@ 9
shipping 9
shirt@@ 9
shore 9
shri@@ 9
shrub 9
siana 9
sickle 9
sification 9
signi@@ 9
silene 9
sitter 9
sleeve 9
slender 9
smoking 9
smooth@@ 9
snakeroot 9
socket 9
soft@@ 9
somal 9
sound@@ 9
soybean 9
span@@ 9
spat@@ 9
spear@@ 9
speciosa 9
spect@@ 9
sperma 9
sphyra@@ 9
spiral 9
spiritual 9
split@@ 9
spra@@ 9
spray 9
spread 9
spri@@ 9
squat@@ 9
stalk 9
stanti@@ 9
station@@ 9
statistic@@ 9
statistics 9
steering 9
stegia 9
step@@ 9
stered 9
sterol 9
stine 9
ston 9
strain 9
straint 9
stratum 9
strength 9
streptom@@ 9
striata 9
struction 9
structural 9
stuff 9
sturb@@ 9
supreme 9
syllable 9
sylvan@@ 9
sylvestris 9
syner@@ 9
synovi@@ 9
syrian 9
systema 9
tack 9
tae 9
takeover 9
tangent 9
tative 9
teaching 9
temporary 9
tetragon@@ 9
teuc@@ 9
tham@@ 9
thead 9
thiness 9
thoracic 9
thra@@ 9
thread 9
tibility 9
tice@@ 9
tidal 9
tier@@ 9
tifolia 9
tilia 9
tinea 9
tioning 9
tisia 9
tisus 9
tival 9
toad@@ 9
tolerance 9
toon 9
torre@@ 9
tortoise 9
tortri@@ 9
trach@@ 9
train@@ 9
transit 9
transport 9
trav@@ 9
tribu@@ 9
tricolor 9
trifolium 9
trigon@@ 9
triticum 9
trot 9
tuna 9
turbine 9
turer 9
turkish 9
tut@@ 9
u-@@ 9
uality 9
uary 9
uer 9
ughing 9
unculus 9
undi 9
uousness 9
ureth@@ 9
us-@@ 9
uta 9
uterine 9
v-@@ 9
vah 9
valeri@@ 9
vanilla 9
vapo@@ 9
vener@@ 9
verbena 9
vert 9
verte@@ 9
vertebr@@ 9
vinegar 9
viper@@ 9
virg@@ 9
viridis 9
viro@@ 9
volt 9
vowel 9
vulture 9
was@@ 9
wealth 9
weapons 9
weeping 9
wer@@ 9
whistle 9
who@@ 9
widow 9
will@@ 9
winkle 9
wintergreen 9
wisteria 9
wool@@ 9
world@@ 9
x-ray 9
xx@@ 9
yi 9
yi@@ 9
yote 9
youth 9
zea 9
zer@@ 9
zero 9
zine 9
zoon 9
zy 9
-down 8
-leaf 8
-me-@@ 8
-of-the-@@ 8
0@@ 8
14 8
abane 8
abasia 8
abronia 8
abu@@ 8
acanthus 8
acces@@ 8
acchar@@ 8
acha 8
acqui@@ 8
actinomyc@@ 8
actu@@ 8
adaceae 8
addict 8
adel@@ 8
adium 8
administrative 8
admiral 8
adop@@ 8
advoc@@ 8
af 8
affairs 8
agriculture 8
alarm 8
alcea 8
alcoho@@ 8
aldehyde 8
aldo@@ 8
alexand@@ 8
alidae 8
alien@@ 8
alim@@ 8
allegh@@ 8
alpinia 8
alpinum 8
alumin@@ 8
amanita 8
ambig@@ 8
ambro@@ 8
amia 8
amidae 8
amino@@ 8
amount 8
ampli@@ 8
anaesthetic 8
anas@@ 8
ander@@ 8
anea 8
angioma 8
angus 8
anine 8
annona 8
anser@@ 8
anthaceae 8
antic@@ 8
antine 8
apa 8
aper@@ 8
apin 8
appear@@ 8
appeti@@ 8
arabian 8
aralia 8
arec@@ 8
arg@@ 8
ariales 8
aristo@@ 8
arizona 8
armen@@ 8
armor 8
arom@@ 8
arterial 8
arteritis 8
ascar@@ 8
asing 8
asphod@@ 8
assay 8
assem@@ 8
asses@@ 8
asthen@@ 8
asting 8
astronom@@ 8
atal 8
ates 8
ather 8
ationism 8
atitis 8
atmospher@@ 8
atology 8
atom 8
atrioventricular 8
ats 8
atta 8
attention 8
audio 8
auricul@@ 8
auro@@ 8
auth@@ 8
autum@@ 8
aven@@ 8
avens 8
axial 8
bacteriaceae 8
ballo@@ 8
bang@@ 8
baw@@ 8
beak 8
beaver 8
bee@@ 8
behavior 8
belief 8
best 8
bibit 8
bibyte 8
bile 8
bilis 8
billi@@ 8
bine 8
bishop@@ 8
bitis 8
block@@ 8
bole@@ 8
bomba@@ 8
border 8
bot 8
bound 8
bout@@ 8
boxing 8
bracte@@ 8
brazilian 8
bre 8
breadth 8
breech 8
breeze 8
brick@@ 8
brier 8
bud@@ 8
buddh@@ 8
budget 8
buil@@ 8
bulbo@@ 8
bum 8
bure@@ 8
but 8
buteo 8
button@@ 8
cabin 8
caine 8
cair@@ 8
calamintha 8
cales 8
cality 8
calla 8
campan@@ 8
cans 8
cardamine 8
carno@@ 8
carotid 8
carpenter's 8
carrot 8
cartilage 8
castille@@ 8
castor 8
cattle@@ 8
cause 8
cavi@@ 8
cd@@ 8
ce-@@ 8
cereal 8
ceremony 8
chair@@ 8
chalk 8
charis 8
check@@ 8
cheir@@ 8
chen 8
cheon 8
cheque 8
chial 8
chimney 8
chinkapin 8
chis@@ 8
chisel 8
chment 8
cholera 8
chos 8
chromatic 8
cidia 8
cidium 8
cigar 8
cinnam@@ 8
ciousness 8
circus 8
citation 8
civilization 8
classification 8
clay@@ 8
cleaner 8
cleft 8
clintonia 8
clitor@@ 8
clock@@ 8
closing 8
closure 8
coal@@ 8
cobal@@ 8
coccin@@ 8
cod 8
cog@@ 8
cognition 8
coides 8
combre@@ 8
commel@@ 8
commen@@ 8
commit@@ 8
communic@@ 8
commut@@ 8
compli@@ 8
conduct 8
confer@@ 8
conform@@ 8
congen@@ 8
conifer@@ 8
conium 8
consciousness 8
constancy 8
construction 8
consum@@ 8
consumer 8
content 8
conval@@ 8
convic@@ 8
cooking 8
cope 8
copper@@ 8
corax 8
cordy@@ 8
corro@@ 8
cott@@ 8
cottage 8
cotyledon@@ 8
covered 8
cr@@ 8
crat@@ 8
craw@@ 8
creature 8
creme 8
crispa 8
criticism 8
crocody@@ 8
crook@@ 8
crust@@ 8
cult 8
currant 8
cycli@@ 8
cylin@@ 8
cyr@@ 8
cystis 8
cytic 8
dalbergia 8
dalis 8
dam 8
dandelion 8
daub@@ 8
davi@@ 8
ddler 8
deb@@ 8
deca@@ 8
dece@@ 8
deficit 8
delay 8
democra@@ 8
dendroica 8
depar@@ 8
depreciation 8
depth 8
deriv@@ 8
dermo@@ 8
desensi@@ 8
destin@@ 8
detec@@ 8
detention 8
deter@@ 8
dev@@ 8
develo@@ 8
dewberry 8
dial@@ 8
diamond 8
dick 8
dicran@@ 8
difference 8
digger 8
dilat@@ 8
dioscorea 8
dipole 8
disci@@ 8
discount 8
distress 8
dite 8
dle-@@ 8
dling 8
doctor@@ 8
dragon@@ 8
dramatic 8
dress@@ 8
drink 8
drops 8
dune 8
dust@@ 8
eae 8
eater 8
ebon@@ 8
echino@@ 8
eclip@@ 8
economics 8
ecta@@ 8
eder 8
edic@@ 8
eel@@ 8
eflower 8
egal@@ 8
eia 8
eight 8
ein@@ 8
elaeag@@ 8
elbow 8
elidae 8
elitis 8
elymus 8
embroid@@ 8
emin@@ 8
emperor 8
empi@@ 8
emus 8
engraving 8
eniaceae 8
entosa 8
entus 8
environ@@ 8
ephed@@ 8
epitheli@@ 8
epo@@ 8
equis@@ 8
erent 8
ergo@@ 8
eriaceae 8
ernity 8
eru@@ 8
erythronium 8
esch@@ 8
esii 8
essive 8
etamine 8
eting 8
eub@@ 8
eugenia 8
euony@@ 8
eur@@ 8
ever@@ 8
evo 8
ex-@@ 8
excre@@ 8
exhaust 8
explo@@ 8
exponential 8
falco 8
farmer 8
farming 8
fastener 8
favor@@ 8
february 8
feeder 8
felic@@ 8
fene@@ 8
ferae 8
fetal 8
ffon 8
field-@@ 8
fighting 8
finish 8
fissure 8
flexi@@ 8
flin@@ 8
flowered 8
fluores@@ 8
flycatcher 8
foc@@ 8
folding 8
fom@@ 8
fontan@@ 8
forme 8
forming 8
fragran@@ 8
fram@@ 8
frank@@ 8
freeze 8
friction 8
frozen 8
fruc@@ 8
frutescens 8
ft-@@ 8
fuge 8
gag@@ 8
galac@@ 8
galium 8
gambling 8
games 8
gaster@@ 8
gastero@@ 8
gay 8
generator 8
genti@@ 8
gentle@@ 8
geography 8
geomet@@ 8
germanic 8
gim@@ 8
ginkgo@@ 8
glac@@ 8
glacier 8
glan@@ 8
glauca 8
glossidae 8
glosso@@ 8
glot@@ 8
glow 8
glyco@@ 8
go-@@ 8
gob@@ 8
gossypium 8
grammatical 8
granadi@@ 8
greas@@ 8
grid 8
groen@@ 8
guest 8
guitar 8
h-@@ 8
hai@@ 8
harp 8
harvest 8
hast@@ 8
hau@@ 8
heav@@ 8
hec@@ 8
helix 8
hepatic 8
hero@@ 8
hinidae 8
hirud@@ 8
hit@@ 8
hitch 8
hoary 8
holoth@@ 8
honor@@ 8
hopper 8
horri@@ 8
horseshoe 8
hose 8
hosp@@ 8
hul@@ 8
hungarian 8
hut@@ 8
hybrid 8
hyla 8
iales 8
ib@@ 8
iba 8
ician 8
icing 8
icula 8
iculus 8
idectomy 8
iding 8
idis 8
ier 8
illata 8
ille@@ 8
imaginary 8
immun@@ 8
impulse 8
inap@@ 8
ind 8
ines@@ 8
inex@@ 8
infin@@ 8
influ@@ 8
inging 8
initi@@ 8
inium 8
injection 8
ink@@ 8
insur@@ 8
integra@@ 8
interface 8
ioides 8
iology 8
ionic 8
iop@@ 8
iority 8
ished 8
isin 8
islam 8
ison 8
itic 8
its 8
jacob@@ 8
jama@@ 8
japon@@ 8
jasmin@@ 8
jaw@@ 8
jew 8
jewish 8
jig@@ 8
john 8
joke 8
jol@@ 8
judge 8
juncus 8
kauri 8
kentucky 8
killing 8
kino 8
knap@@ 8
kne@@ 8
kum@@ 8
lach@@ 8
lacrimal 8
lade 8
ladies' 8
lae 8
laim@@ 8
lam 8
lama 8
lamp@@ 8
lanceolata 8
landica 8
large@@ 8
larix 8
laryngo@@ 8
lase 8
latifolia 8
lavender 8
lawyer 8
lear@@ 8
ledger 8
lee@@ 8
lef@@ 8
lement 8
length 8
letters 8
liberty 8
light-@@ 8
lii 8
lima@@ 8
lime@@ 8
lingual 8
linkage 8
lino@@ 8
literature 8
lith 8
lly 8
lment 8
lobul@@ 8
loides 8
longi@@ 8
loris 8
lounge 8
lover 8
lowland 8
lumin@@ 8
lunch 8
lupinus 8
lupus 8
lura 8
lychnis 8
macadamia 8
maculata 8
mage 8
maid@@ 8
maltese 8
manag@@ 8
manager 8
mania 8
marble@@ 8
martes 8
martin 8
martin@@ 8
mastig@@ 8
mater@@ 8
matricaria 8
medicago 8
melia 8
menis@@ 8
meso@@ 8
mester 8
met 8
metacar@@ 8
militar@@ 8
miner 8
miness 8
minu@@ 8
mist 8
mistress 8
mixed 8
mobile 8
mock 8
mortality 8
mos 8
mosaic 8
mot 8
mour 8
mour@@ 8
mouse-@@ 8
moving 8
mud@@ 8
mullet 8
multipli@@ 8
musa 8
musk@@ 8
muslim 8
mussel 8
n's 8
nan 8
nastur@@ 8
necked 8
need@@ 8
negli@@ 8
nesian 8
neuri@@ 8
neutr@@ 8
newborn 8
nickel 8
nie 8
nigri@@ 8
nite 8
nity 8
noctu@@ 8
nominal 8
nova 8
nutmeg 8
obacter 8
oblique 8
obus 8
ocarpaceae 8
occipital 8
ocell@@ 8
ocent@@ 8
ocharis 8
ocidae 8
ocular 8
odi@@ 8
oeu@@ 8
of-@@ 8
offen@@ 8
official 8
olaris 8
olum 8
omni@@ 8
omphal@@ 8
omycotina 8
onaria 8
oniidae 8
onotus 8
onto@@ 8
ontology 8
onym 8
opath@@ 8
ophaga 8
ophio@@ 8
opod 8
opor@@ 8
opposition 8
opterous 8
opteryx 8
orbit 8
ord@@ 8
ordinate 8
oria 8
orium 8
oryc@@ 8
oscop@@ 8
osm@@ 8
output 8
oven 8
ovirus 8
ox 8
p-up 8
pace 8
painter 8
palatine 8
panth@@ 8
papili@@ 8
papri@@ 8
parallax 8
paralle@@ 8
paralysis 8
parap@@ 8
parasite 8
pariet@@ 8
parietal 8
parkin@@ 8
passing 8
passion 8
pavo 8
pectin@@ 8
pede 8
pedia 8
peel 8
pel 8
pelargonium 8
penicillin 8
percus@@ 8
perfec@@ 8
perid@@ 8
peripat@@ 8
perit@@ 8
perman@@ 8
pero@@ 8
perpet@@ 8
peruvian 8
petrel 8
petunia 8
pharmac@@ 8
pheasant 8
pheny@@ 8
phiidae 8
phila@@ 8
philadelph@@ 8
pholi@@ 8
pi 8
pica 8
picus 8
pidity 8
pim@@ 8
piment@@ 8
piper 8
pist@@ 8
pituitary 8
planetary 8
plantago 8
plasty 8
pleth@@ 8
pliers 8
pocket@@ 8
polo 8
polygala 8
polypodium 8
pomac@@ 8
pondweed 8
pong 8
popu@@ 8
pouch 8
pout 8
predic@@ 8
primi@@ 8
primula 8
prize 8
pro 8
probability 8
proble@@ 8
procell@@ 8
prop 8
propeller 8
proportional 8
protection 8
protective 8
pruri@@ 8
psittac@@ 8
psychosis 8
pter 8
pteridae 8
pterido@@ 8
publishing 8
puer@@ 8
pula 8
puri@@ 8
purse 8
pussy@@ 8
quand@@ 8
quat 8
quer 8
quisition 8
quit@@ 8
rableness 8
ramine 8
rape 8
rational 8
raven@@ 8
real@@ 8
rear 8
reception 8
reciproc@@ 8
rede@@ 8
reflux 8
reinfor@@ 8
reproduc@@ 8
rer 8
residence 8
restrial 8
retar@@ 8
reus 8
revi@@ 8
rheum 8
rhubarb 8
ribes 8
richar@@ 8
rid 8
ried 8
ring-@@ 8
rink 8
rogation 8
rolling 8
ror 8
rosea 8
rosewood 8
roti@@ 8
route 8
rowing 8
rox@@ 8
rupi@@ 8
sagebrush 8
sailing 8
sambucus 8
santal@@ 8
satin 8
sauropo@@ 8
scanner 8
scarab@@ 8
scat@@ 8
scented 8
scheme 8
schist@@ 8
scuti@@ 8
seasi@@ 8
secant 8
sedi@@ 8
seg@@ 8
seismo@@ 8
sella 8
selling 8
semicon@@ 8
setter 8
seus 8
shad@@ 8
shag@@ 8
shak@@ 8
shaw@@ 8
shed 8
shei@@ 8
shelf 8
shell@@ 8
shelter 8
sher@@ 8
shopping 8
shovel 8
siaceae 8
sil 8
silkworm 8
simplex 8
simu@@ 8
sinensis 8
sitting 8
skater 8
slavic 8
sm@@ 8
sme@@ 8
snor@@ 8
soleno@@ 8
somatic 8
sorus 8
soul 8
spade@@ 8
spath@@ 8
speedwell 8
spel@@ 8
spermae 8
sphy@@ 8
spinning 8
sporangium 8
staff@@ 8
stain 8
stair@@ 8
stasis 8
steam@@ 8
sterculia 8
steroid 8
sterone 8
still@@ 8
stilt 8
stone@@ 8
strator 8
striate 8
stric@@ 8
strong 8
stunt 8
su 8
sua@@ 8
subphylum 8
sula 8
sulph@@ 8
sulphur 8
summer@@ 8
sund@@ 8
supporting 8
supre@@ 8
survi@@ 8
swer@@ 8
switch@@ 8
sylla@@ 8
symbol 8
synthetic 8
syphili@@ 8
syrup 8
table@@ 8
taff@@ 8
tag 8
taic 8
tainer 8
tales 8
tarsi@@ 8
tatus 8
taurus 8
tauto@@ 8
tch@@ 8
techni@@ 8
teenth 8
tell@@ 8
tem 8
ten-@@ 8
tender 8
termitidae 8
terra@@ 8
thal 8
thatch 8
theatrical 8
theology 8
theres 8
therm 8
thermi@@ 8
thesis 8
thfulness 8
thian 8
thic@@ 8
thim@@ 8
thing@@ 8
thmic 8
thousand 8
throm@@ 8
thunder@@ 8
thyme 8
thyroid 8
tibet@@ 8
tibialis 8
tication 8
tieth 8
tigh@@ 8
tility 8
time@@ 8
tobac@@ 8
toed 8
toll@@ 8
tomography 8
topo@@ 8
topology 8
topus 8
torpedo 8
torship 8
tour@@ 8
tow 8
toxo@@ 8
tragelaphus 8
trailer 8
transitive 8
transmitter 8
trate 8
tren@@ 8
trick 8
trig@@ 8
trim@@ 8
trol@@ 8
trope 8
tropic 8
tropin 8
ttle 8
tul@@ 8
tuli@@ 8
tumour 8
turk@@ 8
turnix 8
twe@@ 8
typewriter 8
typhlo@@ 8
u. 8
ub 8
ucus 8
ultr@@ 8
unce 8
unit@@ 8
univer@@ 8
untain 8
upon 8
vapor 8
vault 8
velocity 8
ventricle 8
ver's 8
verdict 8
verni@@ 8
vers 8
vest@@ 8
viburnum 8
vicia 8
villea 8
vireo 8
virtu@@ 8
visor 8
vitae 8
vote 8
voy@@ 8
vre 8
vulpes 8
waiting 8
wattle 8
way@@ 8
weevil 8
whipping 8
whist@@ 8
whoo@@ 8
wig 8
wit 8
wolf@@ 8
wolff@@ 8
wur@@ 8
xation 8
xim@@ 8
xyl@@ 8
y's 8
yllis 8
yri@@ 8
zam@@ 8
ziz@@ 8
zoarc@@ 8
zygn@@ 8
-flower 7
-on 7
-wood 7
abdomin@@ 7
abor@@ 7
acaulis 7
accel@@ 7
acidosis 7
acular 7
adian 7
adow 7
aeg@@ 7
aem@@ 7
agre@@ 7
alab@@ 7
albat@@ 7
alep@@ 7
alger@@ 7
aliser 7
aliz@@ 7
alizer 7
alleg@@ 7
alley 7
alosa 7
amin 7
ana@@ 7
anaph@@ 7
ancy@@ 7
aner 7
aniso@@ 7
anor@@ 7
anox@@ 7
anship 7
aque@@ 7
ar-@@ 7
arab 7
aren@@ 7
argon@@ 7
armour 7
arre@@ 7
arri@@ 7
ary@@ 7
aspar@@ 7
atine 7
atlas 7
atte@@ 7
aury 7
bation 7
bau@@ 7
beli@@ 7
blower 7
bosc@@ 7
brate 7
breast@@ 7
burnum 7
bw 7
cae 7
cage 7
califor@@ 7
carolin@@ 7
cd 7
centau@@ 7
cess 7
chle@@ 7
cider 7
clon@@ 7
cly@@ 7
concer@@ 7
cos@@ 7
cry 7
ct 7
cypri@@ 7
dad 7
dais@@ 7
dak@@ 7
dar 7
dation 7
decim@@ 7
defin@@ 7
deposi@@ 7
diamon@@ 7
distribu@@ 7
drin@@ 7
drun@@ 7
du 7
dweed 7
eas 7
echo@@ 7
ehound 7
ek@@ 7
ely@@ 7
emer@@ 7
encyc@@ 7
eni 7
enic 7
eola 7
eon 7
epilep@@ 7
epin@@ 7
erin@@ 7
erite 7
eros 7
erra 7
etics 7
euc@@ 7
eucaly@@ 7
even 7
evolution 7
ez@@ 7
fast@@ 7
fate 7
fill@@ 7
fit 7
fritill@@ 7
fry 7
gathering 7
gav@@ 7
golden@@ 7
gop@@ 7
grun@@ 7
hemor@@ 7
hm 7
hug@@ 7
hyn@@ 7
hyp@@ 7
icide 7
iella 7
ifer 7
iform 7
ily 7
inary 7
inclusion 7
infer@@ 7
inist 7
inite 7
inner 7
inside 7
instr@@ 7
ior@@ 7
java 7
jen@@ 7
jit@@ 7
jut@@ 7
kab@@ 7
kah 7
kni@@ 7
knit@@ 7
kol@@ 7
kop@@ 7
kra@@ 7
ksh@@ 7
lact@@ 7
lance@@ 7
lanceol@@ 7
laure@@ 7
lax 7
lero@@ 7
lle 7
lone 7
luck 7
mack@@ 7
mandi@@ 7
mata 7
mathemati@@ 7
membran@@ 7
mid 7
ming@@ 7
moll@@ 7
nation@@ 7
nings 7
nuci@@ 7
nya 7
o'clock 7
oar@@ 7
oec@@ 7
oeno@@ 7
oman 7
omon@@ 7
omyco@@ 7
onella 7
onics 7
onite 7
onna@@ 7
onoc@@ 7
onry 7
onset 7
ophag@@ 7
ophyllum 7
ople 7
or's 7
ornam@@ 7
oryx 7
ostre@@ 7
ota 7
otomy 7
ovi@@ 7
panthera 7
partment 7
phere 7
phra@@ 7
pion@@ 7
pist 7
pop@@ 7
prim@@ 7
proces@@ 7
prop@@ 7
prum@@ 7
ptom@@ 7
qi 7
rance 7
rator 7
reduction 7
rel 7
remov@@ 7
repe@@ 7
resort 7
respiration 7
retri@@ 7
rette 7
robe 7
roe 7
ronom@@ 7
rope@@ 7
rosem@@ 7
roun@@ 7
rurus 7
sable 7
sago 7
sang@@ 7
sas@@ 7
scan@@ 7
schizoph@@ 7
sell@@ 7
sent 7
servic@@ 7
shade 7
sig@@ 7
slan@@ 7
sling 7
slow 7
smal@@ 7
smel@@ 7
sment 7
sop@@ 7
spre@@ 7
ssia 7
stable 7
stitution 7
stment 7
stum@@ 7
tarian 7
tatum 7
techno@@ 7
teller 7
tible 7
time-@@ 7
tinc@@ 7
tis@@ 7
tit 7
tius 7
tlet 7
ton's 7
treat@@ 7
tting 7
u.@@ 7
uckle 7
ulder 7
uph@@ 7
ustic 7
var 7
varia 7
vism 7
vo 7
volution 7
von 7
vora 7
wad@@ 7
wal 7
wberry 7
wido@@ 7
yal 7
ye 7
ye@@ 7
yeast 7
yon@@ 7
za@@ 7
zapo@@ 7
zee 7
zz 7
0000@@ 6
acade@@ 6
aff 6
airs 6
alpin@@ 6
alve@@ 6
amon@@ 6
amp 6
amyg@@ 6
anatom@@ 6
anten@@ 6
architec@@ 6
armor@@ 6
artem@@ 6
arven@@ 6
athle@@ 6
ato 6
atry 6
aulis 6
basket@@ 6
benz@@ 6
bore@@ 6
born 6
brassi@@ 6
brium 6
cardu@@ 6
cea 6
cerv@@ 6
character@@ 6
cloth@@ 6
coho@@ 6
comyc@@ 6
consc@@ 6
const@@ 6
cric@@ 6
crotal@@ 6
cybe 6
dier 6
differ@@ 6
dut@@ 6
eag@@ 6
eering 6
electri@@ 6
ener@@ 6
engra@@ 6
enni@@ 6
eo 6
ession 6
eth 6
exec@@ 6
expen@@ 6
fo 6
frax@@ 6
fresh@@ 6
furn@@ 6
gink@@ 6
glen@@ 6
glossi@@ 6
gree 6
hamam@@ 6
holi@@ 6
idance 6
iled 6
im 6
inet 6
ising 6
iss 6
itary 6
ld@@ 6
lean 6
lecan@@ 6
lit 6
lo-@@ 6
loun@@ 6
missi@@ 6
mort@@ 6
nica 6
novi@@ 6
ockey 6
officin@@ 6
onica 6
oran@@ 6
penic@@ 6
peru@@ 6
phle@@ 6
portun@@ 6
pru@@ 6
quisi@@ 6
rhom@@ 6
rial 6
rol 6
rup 6
securi@@ 6
skelet@@ 6
skir@@ 6
speed@@ 6
stimul@@ 6
stuff@@ 6
swal@@ 6
swim@@ 6
sylv@@ 6
teach@@ 6
tection 6
tention 6
tex 6
thous@@ 6
tille@@ 6
unci@@ 6
uth 6
vacu@@ 6
veget@@ 6
ventri@@ 6
ventricular 6
virens 6
vulgar@@ 6
wait@@ 6
worm@@ 6
xic@@ 6
ylum 6
absol@@ 5
acter@@ 5
ages 5
agricul@@ 5
alian 5
archit@@ 5
arix 5
athy 5
ava 5
balli@@ 5
bati@@ 5
beggar@@ 5
beha@@ 5
bermu@@ 5
boo 5
braz@@ 5
carcin@@ 5
chant 5
chio@@ 5
cial 5
contr@@ 5
dical 5
dict 5
dou@@ 5
econom@@ 5
ede@@ 5
effici@@ 5
egy@@ 5
elev@@ 5
embro@@ 5
engli@@ 5
eor@@ 5
equival@@ 5
erator 5
ered 5
eron 5
escen@@ 5
etary 5
ethane 5
euphor@@ 5
ew 5
exerc@@ 5
frequ@@ 5
fundam@@ 5
gar 5
gl@@ 5
gour@@ 5
guin@@ 5
gyro@@ 5
hep@@ 5
hydrox@@ 5
identi@@ 5
idosis 5
issance 5
itch@@ 5
judi@@ 5
labyrin@@ 5
laphus 5
las 5
lastic 5
leav@@ 5
leberry 5
letter@@ 5
leuk@@ 5
meas@@ 5
mes 5
mp 5
mush@@ 5
myrme@@ 5
oceros 5
oline 5
pari@@ 5
passi@@ 5
perfor@@ 5
phlo@@ 5
pizz@@ 5
plant@@ 5
porting 5
poster@@ 5
recor@@ 5
represent@@ 5
rican 5
rif@@ 5
sam 5
saxi@@ 5
scrat@@ 5
selagin@@ 5
semic@@ 5
senec@@ 5
serve 5
shir@@ 5
smoo@@ 5
sort 5
sory 5
ssness 5
stac@@ 5
torpe@@ 5
transmit@@ 5
unk 5
uto@@ 5
vid@@ 5
wester@@ 5
windo@@ 5
xico@@ 5
00@@ 4
acce@@ 4
acin@@ 4
acty@@ 4
admini@@ 4
aft 4
alex@@ 4
almon@@ 4
alph@@ 4
alth 4
anium 4
anter@@ 4
archa@@ 4
ariz@@ 4
aspl@@ 4
atlan@@ 4
bage 4
calend@@ 4
campa@@ 4
cardam@@ 4
carti@@ 4
chase 4
cheno@@ 4
chum 4
cigar@@ 4
cket 4
commer@@ 4
cotyle@@ 4
cultiv@@ 4
dehyde 4
demic 4
distri@@ 4
elly 4
elypteris 4
enon 4
enzy@@ 4
erc@@ 4
essen@@ 4
exha@@ 4
finan@@ 4
fr@@ 4
garian 4
goose@@ 4
hibi@@ 4
horses@@ 4
infor@@ 4
inher@@ 4
intelli@@ 4
isance 4
istics 4
istry 4
iver 4
juven@@ 4
kage 4
kent@@ 4
kill@@ 4
lacri@@ 4
lope 4
lyn@@ 4
mae 4
malign@@ 4
me-@@ 4
newsp@@ 4
occid@@ 4
omile 4
ory@@ 4
osar@@ 4
pain@@ 4
pedium 4
perio@@ 4
pillar 4
pitu@@ 4
pne@@ 4
pregn@@ 4
pup@@ 4
rattle@@ 4
renia 4
reson@@ 4
reven@@ 4
ronia 4
rub 4
saf@@ 4
sature@@ 4
saus@@ 4
serrat@@ 4
smu@@ 4
stachy@@ 4
staphy@@ 4
strat@@ 4
theli@@ 4
thresh@@ 4
thritis 4
tlement 4
too@@ 4
torto@@ 4
traff@@ 4
tris 4
tted 4
twent@@ 4
uri 4
vec@@ 4
vest 4
yel@@ 4
abs@@ 3
allu@@ 3
arauc@@ 3
asclepi@@ 3
athemati@@ 3
athing 3
attor@@ 3
aux@@ 3
behavi@@ 3
bly 3
budd@@ 3
camer@@ 3
carpen@@ 3
chamaec@@ 3
chest@@ 3
christi@@ 3
cid@@ 3
colle@@ 3
crist@@ 3
cupress@@ 3
easter@@ 3
emati@@ 3
entalis 3
equi@@ 3
europe@@ 3
execu@@ 3
expo@@ 3
eze 3
fect 3
ficial 3
flex 3
foster@@ 3
fric@@ 3
globu@@ 3
grow@@ 3
himan@@ 3
horizon@@ 3
hormon@@ 3
ior 3
jus@@ 3
kangar@@ 3
kworm 3
ladi@@ 3
ld 3
lein 3
leish@@ 3
lender 3
liam@@ 3
llium 3
maiden@@ 3
mariti@@ 3
mercur@@ 3
mira@@ 3
occipit@@ 3
oce@@ 3
oreg@@ 3
orthodo@@ 3
osau@@ 3
otid 3
outh 3
palu@@ 3
pher 3
ply 3
progre@@ 3
progressi@@ 3
ptus 3
publish@@ 3
repti@@ 3
respir@@ 3
reti@@ 3
rhagic 3
ricul@@ 3
rout@@ 3
scienti@@ 3
shre@@ 3
spiration 3
spru@@ 3
stichum 3
stud@@ 3
thorac@@ 3
tish 3
toi@@ 3
trage@@ 3
transpor@@ 3
troglody@@ 3
vehic@@ 3
verben@@ 3
vire@@ 3
weap@@ 3
wich 3
yuc@@ 3
'clock 2
aman@@ 2
annon@@ 2
anxi@@ 2
athering 2
atmo@@ 2
augh@@ 2
azz 2
beet@@ 2
byte 2
capsu@@ 2
chona 2
chthy@@ 2
cil 2
cket@@ 2
clut@@ 2
conson@@ 2
cortin@@ 2
coty@@ 2
cucurbit@@ 2
dary 2
dioscor@@ 2
eball 2
eccle@@ 2
emplo@@ 2
engin@@ 2
enth 2
envi@@ 2
eping 2
ergic 2
eroot 2
esthetic 2
exper@@ 2
expon@@ 2
fail@@ 2
gala 2
genia 2
gossy@@ 2
gres@@ 2
guit@@ 2
heade@@ 2
hiza 2
huck@@ 2
hydrange@@ 2
iden 2
iel 2
ilian 2
indirec@@ 2
invent@@ 2
invest@@ 2
jap@@ 2
jas@@ 2
juni@@ 2
ledge 2
lege 2
leng@@ 2
lespe@@ 2
less@@ 2
libr@@ 2
ligu@@ 2
lim 2
lobe@@ 2
lych@@ 2
macad@@ 2
malt@@ 2
mance 2
marsu@@ 2
mosqu@@ 2
mouse@@ 2
movi@@ 2
olar 2
omenon 2
ophos@@ 2
orio@@ 2
phate 2
phin 2
phor 2
pipi@@ 2
porcu@@ 2
prairi@@ 2
prise 2
proper@@ 2
repres@@ 2
sage@@ 2
saxifra@@ 2
sorship 2
soy@@ 2
sple@@ 2
ssy@@ 2
stercu@@ 2
stle@@ 2
strative 2
streng@@ 2
syring@@ 2
tact 2
terror@@ 2
theat@@ 2
therm@@ 2
thern 2
trine 2
turni@@ 2
type@@ 2
ulose 2
umo@@ 2
vacc@@ 2
vender 2
zeal@@ 2
ablish@@ 1
accom@@ 1
acetum 1
actus 1
admi@@ 1
anut 1
arb 1
arda 1
ascle@@ 1
atrio@@ 1
auxili@@ 1
axio@@ 1
beaut@@ 1
bitor 1
canad@@ 1
cater@@ 1
celesti@@ 1
cerebr@@ 1
chlam@@ 1
clemati@@ 1
cocon@@ 1
colate 1
comed@@ 1
croco@@ 1
cucur@@ 1
dago 1
dehy@@ 1
depreci@@ 1
difolia 1
ellite 1
enfor@@ 1
equip@@ 1
erel 1
erig@@ 1
eupat@@ 1
everla@@ 1
ficate 1
ficiency 1
frut@@ 1
gans 1
ggar@@ 1
gical 1
hibitor 1
hion 1
hydrau@@ 1
ilibrium 1
inion 1
intestin@@ 1
istle 1
judg@@ 1
lathy@@ 1
lieuten@@ 1
loose@@ 1
lour 1
maho@@ 1
mahogan@@ 1
manu@@ 1
matical 1
meg 1
mosa@@ 1
mph@@ 1
nast@@ 1
notho@@ 1
oler@@ 1
ool 1
opist@@ 1
oy 1
parsle@@ 1
pens 1
pheas@@ 1
pisto@@ 1
polypo@@ 1
potassi@@ 1
range@@ 1
rangement 1
rasp@@ 1
ricle 1
rotun@@ 1
sambuc@@ 1
seis@@ 1
semper@@ 1
serge@@ 1
sias@@ 1
siber@@ 1
sicum 1
smit@@ 1
snak@@ 1
sonal 1
sorgh@@ 1
strial 1
strife 1
strophy 1
tality 1
tibi@@ 1
tionship 1
tocybe 1
toler@@ 1
tsu@@ 1
tten 1
tuce 1
tym@@ 1
ucky 1
ulati@@ 1
umbre@@ 1
vestris 1
