i n 16624
e n 14526
e r 13436
a n 11983
t i 11837
a r 11547
e r</w> 9336
o r 9288
u s</w> 9273
a l 8284
r o 7986
s t 7735
o n 7388
a t 7350
a c 7257
r e 7226
o n</w> 6956
l i 6341
r i 5553
c h 5529
s i 5415
l e 5313
c o 5217
a m 5212
l o 4991
d i 4914
in g</w> 4761
g en 4584
r a 4516
e s 4359
p h 4186
a l</w> 4082
t h 4041
l a 3995
ti on</w> 3916
i l 3914
i s 3807
u n 3717
gen us</w> 3689
i c 3463
u r 3365
e l 3362
i t 3311
u m</w> 3247
p o 3242
a n</w> 3170
a s 3135
d e 2946
l e</w> 2794
e t 2716
a e</w> 2658
o m 2582
u l 2479
i a</w> 2454
s e 2410
es s</w> 2350
t er 2296
i d 2283
a g 2252
u s 2238
a tion</w> 2231
t o 2175
e m 2166
b o 2082
s p 2031
s h 1980
a p 1876
i r 1867
m o 1850
o l 1706
a b 1691
e c 1680
a d 1673
in e</w> 1659
q u 1651
u t 1645
p er 1637
u m 1627
e d</w> 1613
i n</w> 1607
c e</w> 1601
en t</w> 1565
f am 1531
il y</w> 1511
fam ily</w> 1504
c on 1501
o c 1452
e s</w> 1408
h e 1382
p ro 1372
u c 1362
o f</w> 1349
co m 1329
i s</w> 1323
u b 1307
o o 1300
l an 1298
n e 1258
en t 1226
i g 1224
i c</w> 1222
s c 1222
v e</w> 1218
o p 1195
d er</w> 1192
n ess</w> 1191
m e 1175
a ti 1174
t e 1162
p e 1123
ac e 1107
c ar 1104
h y 1104
h o 1102
s o 1091
d o 1087
p ar 1086
a r</w> 1074
r an 1070
g ra 1038
s s</w> 1030
at e</w> 1015
b e 1014
v er 1000
p i 999
v i 989
o r</w> 975
si s</w> 961
s e</w> 943
s y 939
n o 935
id ae</w> 930
m a 917
w e 916
f f 912
g u 905
t y</w> 904
c h</w> 901
k e 899
b i 894
m on 886
t a 880
f or 877
ace ae</w> 876
c or 870
' s</w> 862
i m 857
l y 849
ti c 843
i d</w> 839
a u 837
r ac 828
ar y</w> 828
b l 817
t er</w> 811
it y</w> 810
t ri 804
v e 800
w or 793
a t</w> 790
in g 783
r y</w> 781
a st 777
r u 775
ag e</w> 766
c e 746
st e 745
p re 744
an d 743
m ar 732
s u 726
ti c</w> 726
i l</w> 723
e x 723
el l 718
m ent</w> 693
a d</w> 687
f i 685
lo g 685
g e 683
c y 671
ph y 664
c al 659
t re 654
i li 653
s a 650
b er 649
ar d</w> 645
m an 639
g e</w> 639
is m</w> 639
f o 637
ur e</w> 636
c u 635
is t</w> 630
f l 628
c i 618
g h 618
v en 614
si on</w> 612
s t</w> 610
d e</w> 609
i t</w> 596
d ae</w> 589
w h 587
t e</w> 576
t h</w> 573
g re 571
t ro 570
b u 570
or der</w> 566
s s 565
g i 563
g o 563
c an 560
p l 559
a k 558
r y 557
i z 553
s er 552
on e</w> 550
d er 543
h a 532
b al 528
m in 526
an th 526
ar i 517
o s 513
f er 510
an t</w> 510
d ro 509
at h 508
a v 507
l in 506
e le 505
n i 504
an ce</w> 500
at a</w> 493
a y</w> 489
s al 488
m an</w> 486
t ra 485
c re 485
it e</w> 485
ac k</w> 482
s ub 481
l l 480
com m 478
ti s</w> 477
en ce</w> 476
p lan 475
m e</w> 469
di s 468
co l 463
v er</w> 460
an d</w> 459
is h</w> 459
ac h 457
k er</w> 456
or y</w> 455
i um</w> 454
f e 454
t u 452
p en 451
p er</w> 451
c la 448
oo d</w> 446
as e</w> 445
e t</w> 443
e a</w> 442
m y 441
m u 439
t en 437
tre e</w> 437
p or 436
di c 436
p ri 433
t ing</w> 431
m al 429
to r</w> 429
lo w 428
e l</w> 423
w at 423
il l 421
c er 420
o b 419
st r 419
b er</w> 418
g ro 418
la r</w> 417
e n</w> 413
b ro 413
in ess</w> 411
c k</w> 410
b re 410
o ph 404
us e</w> 404
b ar 403
si a</w> 401
r in 395
h or 393
d ing</w> 392
m at 391
ig h 390
i an</w> 389
c lo 385
u t</w> 384
p e</w> 382
e u 381
in ter 381
p an 379
st er</w> 377
th er 377
o d 376
c y</w> 373
c a 372
ic e</w> 372
c ro 371
ac k 368
p a 367
p la 367
t y 366
ch o 366
p le 361
st er 361
en ess</w> 360
sh i 359
at or</w> 358
t r 355
ti ve</w> 355
m a</w> 354
e - 354
lo w</w> 353
t t 352
t in 352
p in 350
ri c 350
ar ia</w> 347
li a</w> 347
p al 343
m et 342
g ar 340
gh t</w> 339
m i 337
d u 337
h i 337
k ing</w> 336
t or 335
u r</w> 335
c ap 333
el l</w> 331
f ish</w> 329
al is</w> 329
m us 327
ke t</w> 327
t ur 326
co un 326
i r</w> 325
l u 325
s ch 325
p y 325
am er 323
s k 322
un d</w> 322
on al</w> 321
d uc 320
log y</w> 320
t a</w> 318
i de 318
i al</w> 317
an g 317
s ti 316
c at 315
d y 314
ste m</w> 314
l ine</w> 313
b ir 312
an ti 312
i o 311
id e</w> 309
ro o 308
b ra 307
e p 306
sh o 305
es t</w> 303
ph al 303
ro n 301
b ri 300
an a</w> 300
st ri 299
d en 298
un d 298
a s</w> 297
s w 297
ele c 297
ic al</w> 295
r am 294
w ar 294
l or 292
sy stem</w> 292
r en 291
u p</w> 290
s en 290
b a 290
t us</w> 288
g al 288
s h</w> 287
g er 286
th e 286
f ac 285
k e</w> 285
m er 284
m or 283
ch ar 283
u d 282
la tion</w> 282
l y</w> 281
w ood</w> 281
l am 280
amer ic 280
t om 278
p le</w> 278
r h 277
di um</w> 277
r a</w> 276
wat er</w> 276
s n 273
c ent 271
o x 271
in t</w> 270
c k 269
po ly 269
c ul 267
em ent</w> 267
er o 265
ch i 265
t ran 264
s on 264
ar ter 264
d a</w> 263
al es</w> 263
le t</w> 263
ber ry</w> 261
t on 260
m il 260
w in 259
m ac 258
ch e 257
b an 256
plan t</w> 256
m en 254
s ur 253
li c 253
e g 252
a f 250
as t</w> 250
s qu 249
e d 249
h al 248
b ut 248
v al 247
m ic 245
c ur 245
ac id</w> 245
w il 244
ell a</w> 244
un it</w> 243
us ness</w> 243
n um 242
c us</w> 242
b us 242
m is 241
g lo 241
es e</w> 241
ph o 241
f ic 240
b lo 240
ir e</w> 240
u e</w> 239
j o 239
th e</w> 239
ab le</w> 239
t ure</w> 238
ul a</w> 238
shi p</w> 238
s co 237
re d</w> 235
gra ss</w> 235
g n 234
in a</w> 234
ak e</w> 234
o us</w> 233
d y</w> 233
w a 233
w n</w> 233
f t</w> 232
wh ite</w> 232
a m</w> 231
th o 230
ab ili 229
r at 228
f la 228
bo o 228
m ag 227
li c</w> 226
cla ss</w> 226
a k</w> 225
n er 224
p u 223
th y 223
s m</w> 222
iz ation</w> 222
o ff 221
f re 221
d a 221
ch a 221
f low 220
t an 219
c am 219
p ap 219
d ri 218
b ur 218
c ra 217
al e</w> 217
comm on</w> 217
p us</w> 216
st ra 216
h ar 215
g er</w> 215
si l 214
d ay</w> 213
g in 213
g on 213
or a</w> 213
c in 212
p at 212
h em 212
g ol 211
ti on 211
for m 211
h er 210
t rac 207
i ri 207
l ing</w> 207
at us</w> 207
r us 206
we ed</w> 206
ho use</w> 205
ser v 205
a z 204
p ine</w> 204
y c 204
e y 203
t al 202
s el 202
b ac 202
re c 202
ic a</w> 202
h om 201
st o 201
ra l</w> 201
s or 200
f u 200
v ir 200
b or 200
b as 200
b ul 200
americ an</w> 200
n or 199
p ter 199
la w</w> 199
bal l</w> 199
l en 198
f - 198
p et 198
b en 198
bl ack</w> 198
m as 197
d ra 197
g an 197
st re 197
lan d</w> 197
b on 196
l on 195
le a 195
h ol 194
g y 194
g am 194
li ght</w> 194
u ro 193
p rin 193
ch an 193
fer n</w> 193
s si 192
e st 192
f in 192
v o 192
ti me</w> 192
is h 192
gra ph 192
n on 191
d in 191
ur us</w> 191
pro c 191
g la 190
ac e</w> 190
s on</w> 189
e qu 189
il e</w> 189
s a</w> 188
s oc 188
w al 188
al ity</w> 188
ra di 188
is ation</w> 188
el li 188
u ri 187
r e</w> 187
m ul 187
abili ty</w> 187
d es 186
s ol 185
p ic 185
p ur 185
num ber</w> 185
f al 184
bo ard</w> 184
sy n 184
at om 183
p ul 182
y el 182
ve in</w> 182
b le</w> 181
sp ec 181
i st 180
c as 180
f ul 180
f oo 180
g ran 180
de n</w> 180
ati c</w> 180
t - 179
r un 179
li s</w> 178
hy dro 178
l at 177
p p 177
j u 177
te le 177
roo m</w> 177
c al</w> 175
d - 175
b at 175
in di 175
di se 175
el d</w> 175
c le 174
p as 174
c en 173
ch lor 172
bir d</w> 172
flow er</w> 172
n er</w> 171
t em 171
l er</w> 171
c ir 171
o il</w> 171
f f</w> 171
w er</w> 171
j un 171
he ad</w> 171
op ter 171
t le</w> 170
om et 170
c a</w> 169
b it 169
th ro 169
igh t</w> 169
mic ro 169
n a</w> 168
t s</w> 168
t ar 168
f le 168
p lo 168
p per</w> 167
ati ve</w> 167
n a 166
c ri 166
s we 166
ti a</w> 166
e ar 165
f a 164
z o 164
st om 163
i on</w> 162
l ar 162
c le</w> 162
su per 162
dise ase</w> 162
in t 161
ent al</w> 161
li um</w> 160
po si 160
in us</w> 159
at ing</w> 159
le t 159
a gen 158
li ty</w> 158
il l</w> 158
se a</w> 158
sp or 158
lea f</w> 158
d om 157
en sis</w> 157
st or 157
co lo 157
n ing</w> 156
f e</w> 156
f ar 156
v ol 156
d ness</w> 156
g a 156
ce phal 156
oc k</w> 155
uc k 155
ta in</w> 155
o usness</w> 154
po t 154
hy per 154
ti v 153
po li 153
em ia</w> 153
gra m</w> 153
w ay</w> 152
en g 152
ro n</w> 152
ch in 152
o per 151
s ar 151
p it 151
ke y</w> 151
f un 150
et ary</w> 150
i or</w> 149
phy ll 149
i di 148
r ub 148
c tion</w> 148
er a</w> 148
al y 148
sh e 148
fl y</w> 148
lan gu 147
ide s</w> 147
s po 146
k er 146
eu ro 146
elec tro 146
c li 145
ac h</w> 145
ol d</w> 145
fi eld</w> 145
n ut</w> 144
s tic 144
ati onal</w> 144
t ary</w> 143
l ac 143
c ell</w> 143
fl u 143
s ph 142
f lo 142
d ge</w> 142
fo lia</w> 142
b om 141
le p 141
ven a</w> 141
ti dae</w> 140
at o 140
oc ar 140
w he 139
sc i 139
l l</w> 138
en d 138
atom ic</w> 138
langu age</w> 138
t ub 137
f ra 137
p s</w> 137
er y</w> 137
mon etary</w> 137
pre s 137
m us</w> 136
p h</w> 136
p on 136
ch ro 136
ven ess</w> 136
m id 135
o ver 135
s an 135
e th 135
d re 135
ec t</w> 135
r ing</w> 134
p sy 134
v is 134
x i 134
ph i 134
com p 134
v ul 133
b la 133
st ro 133
ph or 133
bl ue</w> 133
wor t</w> 133
n am 132
en o 132
tran s 132
t w 131
be an</w> 131
t es</w> 130
co c 130
vi sion</w> 130
s ul 129
f ri 129
h um 129
en ti 129
er al</w> 129
po int</w> 129
bo x</w> 129
wor k</w> 129
ast er</w> 129
m er</w> 128
m ach 128
v it 128
hy po 128
tic al</w> 128
f ire</w> 127
ar t</w> 127
co ur 127
ut e</w> 127
yel low</w> 127
a ir</w> 126
as h</w> 126
log ist</w> 126
s om 125
g ri 125
or i 125
le g 125
oo l</w> 125
elec tri 125
a si 124
t et 124
u re 124
p ra 124
sp e 124
ad e</w> 124
r us</w> 123
r ing 123
m el 123
l a</w> 123
o l</w> 123
s au 123
li dae</w> 123
ch am 123
le ss 123
t ation</w> 122
p ub 122
d on 122
gre en</w> 122
sn ake</w> 122
l us</w> 121
o ut 121
b ack</w> 121
an us</w> 121
mo un 121
ta il</w> 121
t on</w> 120
e e</w> 120
y - 120
arter y</w> 120
wil d</w> 120
m it 119
anth us</w> 119
o logy</w> 118
s in 118
s ing</w> 118
e v 118
h on 118
en cy</w> 118
par t 118
ill a</w> 118
sel f- 118
n ia</w> 117
s - 117
s mo 117
d le</w> 117
at er</w> 117
do g</w> 117
bus h</w> 117
r um</w> 116
l er 116
c ry 116
w ri 116
g us</w> 116
ar ch</w> 116
m y</w> 115
d ru 115
w ing</w> 115
b le 115
at um</w> 115
di a</w> 115
fic ation</w> 115
a ph 114
i p 114
s li 114
g o</w> 114
ar c 114
st em 114
o d</w> 113
ac tion</w> 113
le d</w> 113
us t</w> 113
a po 112
a ir 112
a ut 112
e sis</w> 112
e ff 112
f ir 112
p tion</w> 112
d an 112
w i 112
b ran 112
er ing</w> 112
bo dy</w> 112
ath er</w> 112
c lu 111
s er</w> 111
v ing</w> 111
or gan 111
al ism</w> 111
at h</w> 111
ch er 111
ch er</w> 111
th or 111
str uc 111
graph y</w> 111
u al</w> 110
m em 110
g y</w> 110
y s</w> 110
y er</w> 110
an o 110
de c 110
se t</w> 110
per son</w> 110
ati on 110
pe a</w> 110
do ub 110
mu si 110
serv ice</w> 110
ful ness</w> 110
r ate</w> 109
m un 109
l eness</w> 109
s um 109
v ic 109
d ac 109
b e</w> 109
g oo 109
y l 109
in f 109
st one</w> 109
de f 109
bi t</w> 109
a x 108
s et 108
b a</w> 108
ac c 108
li z 108
ne w 108
wor m</w> 108
pap er</w> 108
n y</w> 107
n ec 107
m ati 107
p to 107
g ram 107
li n</w> 107
si n</w> 107
se con 107
sp er 107
bi lity</w> 107
l ut 106
k i 106
ri c</w> 106
un der 106
h am 105
k et 105
a e 104
a ff 104
n ic 104
m es 104
s us</w> 104
s le 104
s tic</w> 104
p a</w> 104
b in 104
b us</w> 104
b ack 104
k in 104
an t 104
me dic 104
gu e</w> 104
n e</w> 103
n it 103
c it 103
c ar</w> 103
b one</w> 103
st at 103
is e</w> 103
sp in 103
bl ack 103
moun tain</w> 103
t un 102
o phy 102
g ast 102
ch em 102
hor se</w> 102
euro pe 102
m ili 101
l d</w> 101
o ak</w> 101
e pi 101
f ro 101
f il 101
y a</w> 101
er i 101
id a</w> 101
off ic 101
n at 100
p un 100
b y 100
g a</w> 100
ch or 100
le c 100
le - 100
ab leness</w> 100
tom y</w> 100
agen t</w> 100
a c</w> 99
a de 99
n u 99
t am 99
i tis</w> 99
v in 99
d am 99
b rac 99
j ap 99
ha em 99
boo k</w> 99
europe an</w> 99
e la 98
p ing</w> 98
or ch 98
th al 98
so u 98
roo t</w> 98
a di 97
s am 97
s ation</w> 97
p si 97
w oo 97
b et 97
sc re 97
bi o 97
comm un 97
gro und</w> 97
a - 96
n ational</w> 96
p se 96
ar ch 96
si ve</w> 96
phy l 96
part ment</w> 96
dru g</w> 96
t o</w> 95
t est</w> 95
sp ar 95
for m</w> 95
gro up</w> 95
foo t</w> 95
indi an</w> 95
e f</w> 94
b ar</w> 94
g ia</w> 94
y o 94
k o 94
al o 94
ch ry 94
si an</w> 94
pl at 94
rus h</w> 94
n ar 93
b el 93
ti n</w> 93
ro ck</w> 93
et y</w> 93
ve l</w> 93
cul us</w> 93
u g 92
v ent 92
d oc 92
h oo 92
en se</w> 92
ur a</w> 92
as si 92
sh or 92
uc le 92
ig h</w> 92
sch ool</w> 92
swe et</w> 92
t le 91
m ent 91
v ari 91
h et 91
ri er</w> 91
ch ic 91
ic s</w> 91
it al</w> 91
ec tion</w> 91
wor d</w> 91
ce d 91
mach ine</w> 91
i i</w> 90
i aceae</w> 90
s y</w> 90
v es 90
v ine</w> 90
h un 90
b ab 90
sp on 90
cal i 90
os a</w> 90
mac ro 90
mag ne 90
s ac 89
s un 89
e ar</w> 89
er 's</w> 89
st a 89
at ed</w> 89
li ly</w> 89
de partment</w> 89
om a</w> 89
qu e</w> 89
ut er</w> 89
ho le</w> 89
log ical</w> 89
wh it 89
n is</w> 88
t ory</w> 88
t able</w> 88
e y</w> 88
v a</w> 88
d on</w> 88
w l</w> 88
z e</w> 88
on ia</w> 88
sp i 88
pre ss</w> 88
tt le</w> 88
e p</w> 87
d s</w> 87
en s</w> 87
at o</w> 87
le m 87
colo r</w> 87
n us</w> 86
m al</w> 86
c er</w> 86
o li 86
s and 86
h el 86
h and</w> 86
k no 86
al ist</w> 86
st in 86
ch ur 86
si de</w> 86
co p 86
po wer</w> 86
ap ple</w> 86
um p</w> 86
su p 86
omet er</w> 86
t ch</w> 85
w om 85
b ell 85
er y 85
li m 85
gen ce</w> 85
ra tion</w> 85
et es</w> 85
te a</w> 85
gra ph</w> 85
sy m 85
tic s</w> 85
phy si 85
ren ch</w> 85
a h</w> 84
i ron</w> 84
c ab 84
e us</w> 84
d ar 84
on om 84
si ty</w> 84
sh ar 84
ol a</w> 84
ut h</w> 84
sc or 84
ma j 84
wor ld</w> 84
pre ss 84
ge n</w> 84
fl or 84
form es</w> 84
h and 83
- o 83
st ate</w> 83
th re 83
po st 83
qu i 83
com pan 83
ne uro 83
blo od</w> 83
t ru 82
m am 82
c ket</w> 82
e di 82
p ac 82
v an 82
k a</w> 82
ph one</w> 82
pe t</w> 82
mon o 82
ll a</w> 82
gol den</w> 82
f ron 81
h igh</w> 81
g as</w> 81
ar is</w> 81
ec h</w> 81
od on 81
arter ia</w> 81
est he 81
less ness</w> 81
c ut 80
p el 80
w el 80
j e 80
en e</w> 80
st y 80
at ory</w> 80
si gn 80
di g 80
un i 80
de v 80
oc y 80
he ad 80
ne l</w> 80
we ster 80
ta x 80
bl u 80
cu lar</w> 80
mus cle</w> 80
fac e</w> 80
gam e</w> 80
t ac 79
m ing</w> 79
p ec 79
d el 79
b y</w> 79
g on</w> 79
z y 79
j ac 79
en ter 79
ro se</w> 79
st ock</w> 79
re li 79
ri s</w> 79
ch ri 79
per i 79
uc k</w> 79
op sis</w> 79
cor n</w> 79
coun ter 79
ban k</w> 79
phyll um</w> 79
t al</w> 78
r um 78
c at</w> 78
s no 78
f ly 78
d ol 78
b ill</w> 78
li on</w> 78
mo th</w> 78
ner ve</w> 78
bac ter 78
psy cho 78
n y 77
l un 77
v el 77
d or 77
b ed</w> 77
ti onal</w> 77
st al 77
ch ec 77
le u 77
di o 77
sc ri 77
par ty</w> 77
dro me</w> 77
ath er 77
sub order</w> 77
fu l</w> 77
vir gin 77
soc i 77
fal se</w> 77
chur ch</w> 77
m ic</w> 76
c el 76
s at 76
b il 76
ar ea</w> 76
al ization</w> 76
on y 76
re l</w> 76
re lation</w> 76
di rec 76
ph en 76
ad o 76
sy l 76
cu ri 76
ari an</w> 76
bre ad</w> 76
electri c</w> 76
cali for 76
i v 75
s la 75
p ti 75
v ac 75
h igh 75
b at</w> 75
g g 75
g um</w> 75
in o 75
th i 75
pro gram</w> 75
ta x</w> 75
plan e</w> 75
ox y 75
ey e</w> 75
proc ess</w> 75
secon d</w> 75
wester n</w> 75
s es 74
e li 74
f ran 74
' s- 74
g ul 74
k - 74
z z 74
en a</w> 74
an im 74
st ar</w> 74
li fe</w> 74
pro te 74
fe ver</w> 74
but ter 74
n al</w> 73
n ig 73
c ake</w> 73
p ig 73
d al 73
g ly 73
an gi 73
ti st</w> 73
ti sm</w> 73
al isation</w> 73
as h 73
se cre 73
con tro 73
oc e 73
ne t</w> 73
ke n</w> 73
ther n</w> 73
ide a</w> 73
mul ti 73
a il</w> 72
c ase</w> 72
an ese</w> 72
ti l 72
ro w</w> 72
at ure</w> 72
re la 72
ch us</w> 72
si m 72
le s</w> 72
lo ck</w> 72
un it 72
de d</w> 72
ne w</w> 72
gu n</w> 72
coun t</w> 72
a x</w> 71
n et 71
i us</w> 71
c lin 71
p run 71
h u 71
h an 71
b r 71
k n 71
in de 71
st ation</w> 71
ch il 71
lo o 71
ph a</w> 71
de s</w> 71
se x 71
se ed</w> 71
ap e</w> 71
qu e 71
pro duc 71
vi l</w> 71
compan y</w> 71
a bo 70
u se 70
l um 70
c o</w> 70
c ran 70
f ru 70
w n 70
y l</w> 70
en d</w> 70
ti al</w> 70
le y</w> 70
co tt 70
po w 70
to o 70
so ph 70
do m</w> 70
do wn</w> 70
ba g</w> 70
pho to 70
gla ss</w> 70
tiv ity</w> 70
comp uter</w> 70
a p</w> 69
n ucle 69
r ho 69
c ac 69
e k</w> 69
p li 69
d war 69
b is 69
in ation</w> 69
st ar 69
on ic</w> 69
co ck 69
bo at</w> 69
im mun 69
met er</w> 69
ang le</w> 69
sau ce</w> 69
doub le</w> 69
mili tary</w> 69
b ell</w> 68
g et 68
k y</w> 68
z e 68
th ec 68
id o 68
bo y</w> 68
ad en 68
qu er 68
car d</w> 68
so r</w> 68
rac e</w> 68
ing s</w> 68
my r 68
cer e 68
bus iness</w> 68
syn drome</w> 68
g an</w> 67
ri ght</w> 67
le av 67
di dae</w> 67
he ar 67
ma ker</w> 67
ell er</w> 67
ge o 67
cu p</w> 67
ak er</w> 67
ha ir</w> 67
wat er 67
sil ver</w> 67
tub e</w> 67
n av 66
s al</w> 66
s uc 66
f t 66
p t</w> 66
p il 66
b ic 66
in du 66
ar e</w> 66
re d 66
li gh 66
si on 66
he li 66
vi o 66
fl ora</w> 66
bom b</w> 66
p in</w> 65
w it 65
an um</w> 65
an ism</w> 65
ar m 65
st u 65
st and 65
st ance</w> 65
co o 65
co ff 65
se c 65
sp ace</w> 65
ma ster</w> 65
for ce</w> 65
ing er</w> 65
pl ate</w> 65
dro n</w> 65
ther ap 65
ca p</w> 65
the ory</w> 65
wa ve</w> 65
pub lic</w> 65
cher ry</w> 65
n ic</w> 64
u p 64
r hy 64
m ut 64
c ast 64
o id</w> 64
e ch 64
f ol 64
d ance</w> 64
ro po 64
am p</w> 64
ur y</w> 64
to x 64
ad ing</w> 64
min i 64
dis order</w> 64
fac tor</w> 64
hom e</w> 64
posi tion</w> 64
whe el</w> 64
wom an</w> 64
unit ed</w> 64
u tion</w> 63
u lar</w> 63
f ood</w> 63
b un 63
g ir 63
in d 63
in - 63
lo c 63
th er</w> 63
et te</w> 63
ul us</w> 63
sp an 63
qu ar 63
pro f 63
te x 63
and - 63
sa urus</w> 63
por t</w> 63
pal m</w> 63
vir us</w> 63
int elli 63
eng li 63
musi c</w> 63
jap anese</w> 63
woo d 63
u ral</w> 62
s ap 62
b ra</w> 62
y n 62
z er</w> 62
an cy</w> 62
ti um</w> 62
ac o 62
si g 62
di vision</w> 62
do g 62
gre at</w> 62
col um 62
contro l</w> 62
leav ed</w> 62
a u</w> 61
a qu 61
m ental</w> 61
c um 61
c il</w> 61
c av 61
e per</w> 61
v ar 61
v oc 61
d al</w> 61
w ar</w> 61
y ing</w> 61
x y 61
er e</w> 61
st oc 61
ac tin 61
re fle 61
li qu 61
ra y</w> 61
is er</w> 61
se m 61
sp iri 61
um ent</w> 61
me di 61
ace a</w> 61
ci al</w> 61
sho t</w> 61
jo int</w> 61
cour t</w> 61
fir st</w> 61
r he 60
c ub 60
o - 60
e lo 60
f ur 60
p es</w> 60
d ry 60
in e 60
an aly 60
or an 60
at ri 60
ac et 60
re si 60
gen ti 60
is o 60
ag o</w> 60
ec e</w> 60
be et 60
au to 60
gi ant</w> 60
pri m 60
pin us</w> 60
gar den</w> 60
hi p 60
py ro 60
ep ing</w> 60
soc ial</w> 60
pp ing</w> 60
opter is</w> 60
oper ation</w> 60
stic k</w> 60
a er 59
c and 59
s ing 59
p us 59
d oo 59
b on</w> 59
j a 59
j ud 59
er s</w> 59
al ian</w> 59
ri dae</w> 59
ra t</w> 59
bo t 59
hy d 59
pi pe</w> 59
for e 59
au str 59
bu g</w> 59
fe der 59
lam p</w> 59
mil k</w> 59
gy m 59
foo t 59
vul gar 59
dac ty 59
magne tic</w> 59
intelli gence</w> 59
a sis</w> 58
u gh 58
o m</w> 58
s ati 58
f er</w> 58
f em 58
b ing</w> 58
in um</w> 58
ro ad</w> 58
lo t</w> 58
om y 58
ne g 58
so li 58
bl in 58
can ad 58
cro ss 58
sk in</w> 58
tet ra 58
orch id</w> 58
ug h</w> 58
dwar f</w> 58
engli sh</w> 58
beet le</w> 58
t ab 57
t ec 57
t ness</w> 57
u lo 57
s mal 57
f rench</w> 57
p ent 57
v as 57
b ig 57
ti m 57
gen eral</w> 57
th ir 57
se curi 57
mo v 57
ec onom 57
ad er</w> 57
per son 57
he x 57
ne y</w> 57
sc ale</w> 57
te ch 57
mar k</w> 57
mar ket</w> 57
bu il 57
os au 57
lin ess</w> 57
mu st 57
sho p</w> 57
ba si 57
glo ss 57
pot ato</w> 57
ocar pus</w> 57
v et 56
h en 56
g or 56
k s</w> 56
j a</w> 56
j am 56
er ia</w> 56
an e</w> 56
al li 56
ac ro 56
po st</w> 56
bi um</w> 56
au di 56
ast er 56
anth em 56
io usness</w> 56
blo ck</w> 56
trac t</w> 56
pur ple</w> 56
sci ence</w> 56
n ut 55
i es</w> 55
i ana</w> 55
m ine</w> 55
o po 55
e w</w> 55
d ut 55
w o 55
k ing 55
at t 55
ra g 55
ph us</w> 55
ph on 55
om yc 55
se d</w> 55
ver n 55
su it</w> 55
fi re 55
cal li 55
fl am 55
ari us</w> 55
lon g 55
chin ese</w> 55
i x</w> 54
c ad 54
h ic 54
en cephal 54
co at</w> 54
de li 54
ul t</w> 54
par tic 54
be ar 54
fo li 54
fer a</w> 54
ple x 54
sco pe</w> 54
oran ge</w> 54
u d</w> 53
l uc 53
c ic 53
c rac 53
o t</w> 53
s and</w> 53
e m</w> 53
e ph 53
d d 53
w est</w> 53
h ab 53
b in</w> 53
g ar</w> 53
g land</w> 53
k in</w> 53
ch ing</w> 53
bo r</w> 53
sp ir 53
con di 53
cy clo 53
da is 53
tem por 53
a y 52
n ed</w> 52
r or 52
m on</w> 52
m ur 52
c ing</w> 52
s man</w> 52
f as 52
v us</w> 52
b uc 52
in c 52
ro w 52
st ant</w> 52
la ti 52
is sion</w> 52
ul ata</w> 52
qu ad 52
he art</w> 52
cor d</w> 52
ste el</w> 52
cy to 52
fo ur 52
cu it</w> 52
gre en 52
sub class</w> 52
bar k</w> 52
ty pe</w> 52
cent er</w> 52
win d</w> 52
chlor ide</w> 52
let ter</w> 52
pra iri 52
pse u 52
prun us</w> 52
a ea</w> 51
n ight</w> 51
i ti 51
m ph 51
s lo 51
e tic</w> 51
p ast 51
d ata</w> 51
w ol 51
in er</w> 51
an a 51
or e</w> 51
ac anth 51
le a</w> 51
am o 51
lo r</w> 51
po und</w> 51
qu in 51
pro to 51
sc ar 51
me tho 51
pl ac 51
ach e</w> 51
bro wn</w> 51
igh t 51
war e</w> 51
ox ide</w> 51
off ice</w> 51
fre e</w> 51
cha in</w> 51
cra b</w> 51
yel low 51
fun gus</w> 51
aut om 51
securi ty</w> 51
n as 50
c s</w> 50
f rac 50
p ne 50
k al 50
in str 50
ti ce</w> 50
ti veness</w> 50
ar ti 50
st ud 50
re action</w> 50
li t 50
ph os 50
de ath</w> 50
ag us</w> 50
sh ell</w> 50
con ver 50
pe di 50
pi ece</w> 50
fo lium</w> 50
ha w 50
cre di 50
met al</w> 50
wil low</w> 50
mis sion</w> 50
chan ge</w> 50
ation s</w> 50
chem ical</w> 50
reli gi 50
quer cus</w> 50
prairi e</w> 50
t ry</w> 49
o s</w> 49
s ab 49
e ti 49
e an</w> 49
p - 49
d us</w> 49
d der</w> 49
g as 49
g ation</w> 49
x ic 49
en er 49
or gan</w> 49
al ia</w> 49
re a</w> 49
li st</w> 49
ch el 49
di c</w> 49
ra b 49
th ri 49
ic i 49
em a</w> 49
con tin 49
so dium</w> 49
ili a</w> 49
lin gu 49
tra de</w> 49
pen d 49
ob ia</w> 49
pa y 49
ric an</w> 49
win do 49
form ation</w> 49
proc es 49
clu b</w> 49
therap y</w> 49
c um</w> 48
o sis</w> 48
s um</w> 48
s ad 48
f el 48
v a 48
d o</w> 48
w ag 48
j ec 48
in te 48
ro y 48
ch al 48
lo b 48
di sp 48
gen er 48
il a</w> 48
ic um</w> 48
po is 48
ver y</w> 48
ver se</w> 48
we ight</w> 48
ve - 48
su gar</w> 48
pl um 48
mat ri 48
mus h 48
sch iz 48
char ge</w> 48
prin ci 48
wal l</w> 48
dom in 48
dre ss</w> 48
stat es</w> 48
commun ic 48
maj or</w> 48
coff ee</w> 48
m ad 47
o ste 47
e uc 47
f ish 47
p lic 47
w ine</w> 47
z i 47
j ack 47
an te 47
ac ter 47
ac count</w> 47
re gi 47
ic us</w> 47
po le</w> 47
ter n</w> 47
mo use</w> 47
ent ation</w> 47
me as 47
pe pper</w> 47
car ol 47
gra y</w> 47
pi e</w> 47
we l</w> 47
ly co 47
sa f 47
sa w</w> 47
iz er</w> 47
anth era</w> 47
cre am</w> 47
pla y</w> 47
ple x</w> 47
mus culus</w> 47
rh iz 47
pp y</w> 47
fly ing</w> 47
oce phal 47
fru it</w> 47
vio let</w> 47
n em 46
i ch 46
m ia</w> 46
c ru 46
o v 46
s ag 46
e er</w> 46
g un 46
g ood</w> 46
g lut 46
k a 46
z a</w> 46
in sur 46
an s</w> 46
or din 46
al th</w> 46
st a</w> 46
st ry</w> 46
li p</w> 46
ra il 46
id er</w> 46
to p</w> 46
ne ph 46
op s</w> 46
ma x 46
gu ard</w> 46
cor y 46
bl er</w> 46
tri ch 46
ve lo 46
ing - 46
gre y</w> 46
ha ir 46
ath y</w> 46
col or 46
hor n</w> 46
mat er 46
cro ss</w> 46
coun cil</w> 46
ger y</w> 46
fre e 46
gon ia</w> 46
mas s</w> 46
ist le</w> 46
opter a</w> 46
chic ken</w> 46
esthe sia</w> 46
too th</w> 46
dais y</w> 46
c ell 45
f ig 45
p id 45
d 's</w> 45
b uck 45
k ni 45
in ing</w> 45
ro d</w> 45
st ing</w> 45
li sm</w> 45
ri a</w> 45
di ty</w> 45
gen esis</w> 45
se l</w> 45
bo w 45
ig n</w> 45
op us</w> 45
me chan 45
te dness</w> 45
car e</w> 45
ve t</w> 45
su e</w> 45
cal l</w> 45
go vern 45
sub family</w> 45
tu de</w> 45
tr ust</w> 45
stri s</w> 45
rh in 45
spec i 45
eng ine</w> 45
sar co 45
stem on</w> 45
nat ural</w> 45
chec k</w> 45
pow der</w> 45
anthem um</w> 45
n om 44
i formes</w> 44
u a</w> 44
u le</w> 44
c l 44
c us 44
s us 44
s age</w> 44
p an</w> 44
v ia</w> 44
h ard</w> 44
b ia</w> 44
b ry 44
b and</w> 44
b rush</w> 44
k an 44
st an 44
on idae</w> 44
on e- 44
ch on 44
si veness</w> 44
le vel</w> 44
am ar 44
il ing</w> 44
ic k</w> 44
et er</w> 44
bo l 44
sp ring</w> 44
per io 44
cor on 44
im per 44
ve n</w> 44
wor ker</w> 44
ing ness</w> 44
bu ff 44
pl um</w> 44
bre ak 44
ther mo 44
af rican</w> 44
squ ir 44
bon d</w> 44
phyll a</w> 44
flu or 44
liz ard</w> 44
offic er</w> 44
het ero 44
blu e 44
califor nia</w> 44
anim al</w> 44
windo w</w> 44
a sia</w> 43
n oc 43
t ed</w> 43
u lation</w> 43
r ent</w> 43
m ap 43
m and 43
c ity</w> 43
s tis</w> 43
e aster 43
f ile</w> 43
p ag 43
p ut 43
z ation</w> 43
j er 43
j um 43
ro ll</w> 43
st ric 43
co t</w> 43
am ine</w> 43
di ff 43
is tic</w> 43
po t</w> 43
ter rier</w> 43
me xic 43
mon ey</w> 43
my x 43
bro n 43
tin a</w> 43
pin k</w> 43
def ense</w> 43
phyl lo 43
pseu do 43
instr ument</w> 43
ener gy</w> 43
mush room</w> 43
saf ety</w> 43
n ur 42
t ag 42
t ap 42
o u 42
e o 42
e al</w> 42
f en 42
d ry</w> 42
w berry</w> 42
b lan 42
b and 42
g ing</w> 42
y ard</w> 42
- leaved</w> 42
j ack</w> 42
ar tic 42
or ni 42
al pin 42
re ce 42
co ho 42
sh oo 42
ig n 42
me g 42
ho und</w> 42
so ur 42
bl eness</w> 42
fi x 42
pl ace</w> 42
inter national</w> 42
bra in</w> 42
cha ir</w> 42
stom a</w> 42
agen cy</w> 42
ced ar</w> 42
dol lar</w> 42
gir l</w> 42
doo r</w> 42
i led</w> 41
u ti 41
c uc 41
o y 41
o le 41
o sc 41
o ides</w> 41
f on 41
w ast 41
h at</w> 41
k weed</w> 41
z one</w> 41
er - 41
al i 41
al ph 41
st age</w> 41
ri age</w> 41
ch e</w> 41
ph ar 41
la st</w> 41
il er</w> 41
it a</w> 41
po di 41
ter y</w> 41
ter min 41
he at</w> 41
uc a</w> 41
ne ed 41
ho use 41
ell ing</w> 41
man i 41
ci um</w> 41
wh is 41
dis h</w> 41
hor se 41
clo th 41
od on</w> 41
nor thern</w> 41
len s</w> 41
far e</w> 41
phi lo 41
cry pto 41
organ ization</w> 41
tru e</w> 41
dev ice</w> 41
jud g 41
n um</w> 40
m om 40
l ero 40
o ut</w> 40
e co 40
p t 40
p y</w> 40
p ati 40
v il 40
d ding</w> 40
w re 40
g ate</w> 40
k en 40
en gin 40
or us</w> 40
or ph 40
or th 40
al le 40
ro r</w> 40
st rac 40
li ter 40
si ck 40
le ss</w> 40
co de</w> 40
di plo 40
it ch</w> 40
po d</w> 40
po cket</w> 40
se arch</w> 40
mo tor</w> 40
op si 40
te e</w> 40
ho t</w> 40
ver te 40
bi g</w> 40
dro p</w> 40
duc tion</w> 40
sw amp</w> 40
americ ana</w> 40
ton ia</w> 40
squ are</w> 40
hal f</w> 40
iri s</w> 40
pet ro 40
electro nic</w> 40
pres sion</w> 40
nam e</w> 40
hum an</w> 40
hon ey 40
shar k</w> 40
press ure</w> 40
cott on</w> 40
credi t</w> 40
easter n</w> 40
a w 39
a en 39
t ent</w> 39
r o</w> 39
s cho 39
e ast</w> 39
e thy 39
f an 39
f et 39
f ic</w> 39
p is 39
p rac 39
h ood</w> 39
k le</w> 39
j ect</w> 39
in dic 39
ro man</w> 39
ro ll 39
st ag 39
on y</w> 39
on ing</w> 39
ac y</w> 39
ac ade 39
ch ia</w> 39
si te</w> 39
am in 39
am ph 39
lo ve</w> 39
ph ate</w> 39
th us</w> 39
po dium</w> 39
ag ro 39
mo ss</w> 39
uc h</w> 39
sc al 39
te n</w> 39
pe ti 39
hy n 39
par t</w> 39
ran t</w> 39
be e</w> 39
be ar</w> 39
cor al</w> 39
clo th</w> 39
tt ed</w> 39
sen se</w> 39
win d 39
che ese</w> 39
colo ur</w> 39
she et</w> 39
cour se</w> 39
medic ine</w> 39
phyl um</w> 39
chry so 39
doc tor</w> 39
i idae</w> 38
l - 38
o logist</w> 38
o graphy</w> 38
p ad</w> 38
w ash 38
in s</w> 38
in idae</w> 38
an der</w> 38
an gu 38
ti s 38
ro cket</w> 38
re spon 38
le y 38
le ag 38
es cen 38
ph il 38
la y</w> 38
la bor</w> 38
un der</w> 38
as y 38
se ction</w> 38
to m</w> 38
bo w</w> 38
com a</w> 38
lan d 38
pe ar 38
ma s</w> 38
ma il</w> 38
ru le</w> 38
ex ec 38
fi er</w> 38
cy c 38
cal end 38
fer ence</w> 38
clo ck</w> 38
tur n</w> 38
stra tion</w> 38
bas s</w> 38
stre et</w> 38
ish ness</w> 38
radi ation</w> 38
uri a</w> 38
pas s</w> 38
dre ss 38
mem ory</w> 38
ki e</w> 38
medic al</w> 38
offic in 38
ery thro 38
-o f- 38
chri st 38
sno w 38
mov ement</w> 38
metho d</w> 38
insur ance</w> 38
mater ial</w> 38
kni fe</w> 38
t an</w> 37
t us 37
t ter</w> 37
r ine</w> 37
c an</w> 37
c ence</w> 37
s '</w> 37
s ure</w> 37
e ag 37
p es 37
b age</w> 37
g le</w> 37
g em 37
k ed</w> 37
ar ity</w> 37
al a</w> 37
st al</w> 37
on ion</w> 37
at eness</w> 37
re d- 37
li ber 37
gen t</w> 37
la w 37
ul um</w> 37
se x</w> 37
mo l 37
mo tion</w> 37
op en 37
rac k</w> 37
and ra</w> 37
fi t</w> 37
ha z 37
av er</w> 37
comm er 37
pri ce</w> 37
str ing</w> 37
gro und 37
bra l</w> 37
bra ke</w> 37
cent ral</w> 37
wa x</w> 37
bul l 37
gran di 37
tele vision</w> 37
cir cuit</w> 37
omet ry</w> 37
dom es 37
spo t</w> 37
cli m 37
tub er 37
nit ro 37
fro g</w> 37
het er 37
jac ket</w> 37
secre tary</w> 37
sex ual</w> 37
prof es 37
feder al</w> 37
vulgar is</w> 37
plex us</w> 37
roy al</w> 37
n ast 36
n ight 36
m um</w> 36
c et 36
c au 36
s onal</w> 36
e ver 36
p ed</w> 36
w ic 36
h ir 36
g ig 36
y ear</w> 36
in fer 36
in sec 36
en ium</w> 36
al l</w> 36
al coho 36
ro ph 36
ro se 36
li ttle</w> 36
co w 36
am in</w> 36
di ab 36
th istle</w> 36
la dy 36
po l 36
se mi 36
mo r</w> 36
ol y 36
ol us</w> 36
so und</w> 36
ke y 36
ell us</w> 36
ge t</w> 36
tro p 36
min or</w> 36
tu al</w> 36
ill us</w> 36
sti tch</w> 36
bir ch</w> 36
tran si 36
eg g</w> 36
lon g</w> 36
tele phone</w> 36
fron t</w> 36
ado w</w> 36
butter fly</w> 36
indu stry</w> 36
stand ard</w> 36
span ish</w> 36
analy sis</w> 36
hip po 36
i le 35
u ter 35
m ill 35
s ine</w> 35
s ke 35
f is 35
f ing 35
f ring 35
p ad 35
p ack 35
p ud 35
b li 35
k ar 35
- up</w> 35
j ection</w> 35
in ae</w> 35
an o</w> 35
an em 35
ti e</w> 35
ti le</w> 35
ro ck 35
on o 35
on ica</w> 35
li e 35
le ad</w> 35
am phi 35
lo ma</w> 35
po ppy</w> 35
to bac 35
bo ttle</w> 35
sh ri 35
qu o 35
per sonal</w> 35
pe n</w> 35
ma y 35
mon key</w> 35
ta in 35
ta iled</w> 35
tic a</w> 35
pre ci 35
mar sh</w> 35
ex ter 35
pri v 35
pla yer</w> 35
sho w</w> 35
bri dge</w> 35
win ter</w> 35
cra ft</w> 35
gol d</w> 35
ben e 35
radi o 35
radi o</w> 35
spo tted</w> 35
enti al</w> 35
leg al</w> 35
musi cal</w> 35
fil m</w> 35
pse ud 35
plat y 35
smal l</w> 35
princi ple</w> 35
govern ment</w> 35
a eg 34
t es 34
u n</w> 34
c ler 34
o le</w> 34
s ut 34
s ni 34
d un 34
w ard</w> 34
h at 34
b ub 34
b ase</w> 34
g le 34
g in</w> 34
g au 34
y x</w> 34
k it 34
x - 34
an om 34
an ge 34
al ba</w> 34
ro t</w> 34
ro und</w> 34
st ati 34
ac t</w> 34
ac ar 34
ri d 34
ch ron 34
si um</w> 34
co ver 34
am us</w> 34
lo an</w> 34
ph as 34
un t</w> 34
as sa 34
se al</w> 34
mo uth</w> 34
ec tomy</w> 34
me lo 34
car di 34
so lar</w> 34
so ft</w> 34
so uth</w> 34
vi an</w> 34
cor relation</w> 34
gre e</w> 34
sal ad</w> 34
sal ix</w> 34
pen stemon</w> 34
cla ssi 34
dic al</w> 34
ill ary</w> 34
hor mon 34
tr un 34
mil li 34
val ve</w> 34
pic ture</w> 34
jun ction</w> 34
stor m</w> 34
poli ce</w> 34
whe at</w> 34
sul f 34
cham a 34
arc to 34
struc ture</w> 34
bab y</w> 34
nucle ar</w> 34
prim ary</w> 34
pne um 34
calend ar</w> 34
a i</w> 33
n ation</w> 33
n ap 33
t um</w> 33
t ar</w> 33
t one</w> 33
f or</w> 33
f ast</w> 33
d um 33
d ent</w> 33
d ate</w> 33
w ell</w> 33
ar um</w> 33
al ness</w> 33
ro man 33
at or 33
li po 33
ri b 33
ch en</w> 33
le uc 33
co u 33
di r 33
th m</w> 33
th a</w> 33
po da</w> 33
ul aria</w> 33
se as 33
con f 33
he alth</w> 33
sc lero 33
op e</w> 33
me at</w> 33
ho lo 33
gra v 33
be d 33
pi d</w> 33
ste ak</w> 33
man d</w> 33
man 's</w> 33
sal t</w> 33
cre ss</w> 33
dis m</w> 33
col d</w> 33
my o 33
low er</w> 33
oph ora</w> 33
bir th</w> 33
sho e</w> 33
ton gue</w> 33
af f</w> 33
cur rent</w> 33
mas ti 33
cri min 33
fa ir 33
she ep</w> 33
phor us</w> 33
smo o 33
liz ation</w> 33
refle x</w> 33
thir d</w> 33
proces sing</w> 33
escen s</w> 33
m ir 32
c es</w> 32
c ement</w> 32
o ff</w> 32
s ory</w> 32
f at 32
p idae</w> 32
d rac 32
b o</w> 32
b ag 32
b ay</w> 32
b light</w> 32
en to 32
an ter 32
an ium</w> 32
al b 32
al - 32
st y</w> 32
st en 32
st ed</w> 32
st ru 32
st ory</w> 32
ac a</w> 32
ac tive</w> 32
li te</w> 32
ri gh 32
co pe</w> 32
di an</w> 32
gen e</w> 32
ph ase</w> 32
la dy</w> 32
is s</w> 32
el m</w> 32
el le</w> 32
de a</w> 32
de ck</w> 32
se at</w> 32
mo der 32
ad mini 32
con tract</w> 32
he n</w> 32
uc i 32
com pound</w> 32
ati dae</w> 32
do w 32
gra pe</w> 32
be ef</w> 32
be gonia</w> 32
no te</w> 32
gu in 32
cor por 32
fi r</w> 32
fi ber</w> 32
log ic</w> 32
cy an 32
cy press</w> 32
sa v 32
ci vil</w> 32
min t</w> 32
ari aceae</w> 32
os us</w> 32
dis k</w> 32
col a</w> 32
col le 32
col ate</w> 32
col lec 32
mal low</w> 32
wat ch</w> 32
cap e</w> 32
duc k</w> 32
ger man</w> 32
lic a</w> 32
but ter</w> 32
mag no 32
bas ket</w> 32
nor th</w> 32
hol y</w> 32
gran d</w> 32
bat h</w> 32
stor age</w> 32
poli tical</w> 32
spe ech</w> 32
dec im 32
gast ro 32
arch it 32
ves ti 32
leu co 32
prote in</w> 32
thec us</w> 32
sig n</w> 32
austr alian</w> 32
canad ensis</w> 32
a way</w> 31
t um 31
i on 31
u le 31
m atic</w> 31
c es 31
s l 31
s ent 31
e ding</w> 31
e duc 31
p ump</w> 31
v ig 31
g lan 31
- and- 31
x anth 31
en aria</w> 31
er t</w> 31
an i</w> 31
ti ll 31
ti sh</w> 31
ar m</w> 31
ar my</w> 31
or al</w> 31
al ty</w> 31
st on 31
on ist</w> 31
re ed</w> 31
re pres 31
li sh 31
si onal</w> 31
co al</w> 31
di ag 31
ph ag 31
ur ing</w> 31
el y 31
as soci 31
de er</w> 31
se p 31
to p 31
sp ur 31
sh el 31
qu arter 31
pro per 31
me d 31
me thy 31
te ach 31
ran ge</w> 31
pi lot</w> 31
vi ew</w> 31
sy stem 31
ma id 31
ly mph 31
bl ing</w> 31
wor k 31
ce ption</w> 31
mar ine</w> 31
su n</w> 31
ge ar</w> 31
man ag 31
wh i 31
wh ale</w> 31
sal am 31
mal e</w> 31
bro ad 31
pla n</w> 31
cho colate</w> 31
tr um</w> 31
mi x 31
cap it 31
coun try</w> 31
duc t</w> 31
fla g</w> 31
dri ve</w> 31
sto p</w> 31
hol der</w> 31
cle an 31
cir cum 31
thro m 31
stor e</w> 31
far m</w> 31
uck le</w> 31
rub ber</w> 31
stro ph 31
electri cal</w> 31
eff ici 31
yl on</w> 31
kno t</w> 31
dev il 31
nav al</w> 31
buil ding</w> 31
communic ation</w> 31
squir rel</w> 31
tis sue</w> 31
hormon e</w> 31
i x 30
i po 30
m ate</w> 30
o o</w> 30
o ta</w> 30
s inus</w> 30
e ur 30
f us 30
f in</w> 30
p ment</w> 30
w on 30
z ing</w> 30
z ia</w> 30
j as 30
in com 30
an g</w> 30
al s</w> 30
al lo 30
ac ity</w> 30
li me</w> 30
ri um</w> 30
si i</w> 30
co ver</w> 30
co ck</w> 30
am a</w> 30
di stri 30
ra m</w> 30
th e- 30
la ge</w> 30
la ure 30
el e</w> 30
it or</w> 30
et a</w> 30
ter 's</w> 30
ag re 30
sh ir 30
ad a</w> 30
ad ren 30
con serv 30
oc er 30
op le</w> 30
ati ca</w> 30
ho ur</w> 30
be ech</w> 30
no se</w> 30
ff le</w> 30
ke eper</w> 30
ta il 30
cor n 30
tic us</w> 30
tic ism</w> 30
tic ket</w> 30
pre ssi 30
and a</w> 30
fi el 30
tre as 30
fo il</w> 30
gi an</w> 30
ak ing</w> 30
bal ance</w> 30
ari um</w> 30
ten sion</w> 30
bar b 30
cro wn</w> 30
tr um 30
coun ter</w> 30
py r 30
sk i 30
sur gery</w> 30
prin t</w> 30
graph ic</w> 30
equ ip 30
spec ial</w> 30
super ior</w> 30
idi a</w> 30
sci enti 30
psy ch 30
vis ual</w> 30
cham ber</w> 30
thor n</w> 30
sou thern</w> 30
scre w</w> 30
chry s 30
cop y</w> 30
vac cin 30
chil d</w> 30
immun o 30
econom ic</w> 30
osau r</w> 30
must ard</w> 30
religi ous</w> 30
perio d</w> 30
map le</w> 30
mexic an</w> 30
dress ing</w> 30
a ver 29
a ke 29
n ative</w> 29
t i</w> 29
t ant</w> 29
i e</w> 29
m ig 29
c ili 29
c amer 29
o ti 29
s com 29
s so 29
e x</w> 29
e on</w> 29
f ec 29
f um 29
f ram 29
d um</w> 29
d asy 29
h us 29
b al</w> 29
b ast 29
g ator</w> 29
k i</w> 29
k id 29
en ni 29
st ur 29
co g 29
di al 29
ra in 29
ra dical</w> 29
la p 29
un ion</w> 29
po d 29
as p 29
et e</w> 29
ul atus</w> 29
se s</w> 29
us tic</w> 29
em er 29
em an</w> 29
um in 29
con e</w> 29
ent alis</w> 29
me li 29
me adow</w> 29
hy gro 29
hy men 29
so il</w> 29
be er</w> 29
pi t</w> 29
fi bro 29
cal y 29
ili ty</w> 29
sa xi 29
fl at 29
gre ek</w> 29
anth ropo 29
tra ff 29
eu phor 29
pla y 29
dy nam 29
bir th 29
den dro 29
ger man 29
val ue</w> 29
boo k 29
fre qu 29
tion s</w> 29
prin ting</w> 29
lep to 29
stro ke</w> 29
coc cus</w> 29
vit amin</w> 29
struc tion</w> 29
sum mer</w> 29
nec k</w> 29
shor t</w> 29
thre e- 29
pac i 29
direc t</w> 29
cac tus</w> 29
cav ity</w> 29
dut y</w> 29
euc aly 29
infer ior</w> 29
proper ty</w> 29
equip ment</w> 29
a b</w> 28
n ab 28
n au 28
t ape</w> 28
i tion</w> 28
i ron 28
o k 28
o ch 28
e f 28
f und 28
d le 28
d ock</w> 28
w inter 28
w ire</w> 28
w rench</w> 28
0 0 28
in al</w> 28
ar ab 28
or e 28
al pine</w> 28
on to 28
ac ia</w> 28
re st</w> 28
li tis</w> 28
ch ap 28
co w</w> 28
gen cy</w> 28
ra p 28
ra ph 28
ph er 28
it ter</w> 28
po ll 28
po pul 28
de - 28
de ad</w> 28
de velo 28
de gree</w> 28
et us</w> 28
id ness</w> 28
id ence</w> 28
to ad</w> 28
bo tt 28
sp ic 28
sp ru 28
mo ther</w> 28
ec to 28
ad o</w> 28
me gal 28
car t</w> 28
car pus</w> 28
vi si 28
we ather</w> 28
tri cho 28
ve get 28
ce ae</w> 28
ex am 28
ex per 28
ge on</w> 28
cu t</w> 28
ele ph 28
ele ment</w> 28
comm ission</w> 28
oph ag 28
ther m 28
ca es 28
bra ssi 28
stri al</w> 28
ger anium</w> 28
che st 28
sur face</w> 28
jo h 28
da y 28
sil ver 28
tion ary</w> 28
pter is</w> 28
len e</w> 28
stre ss</w> 28
prin ter</w> 28
tem per 28
spor t</w> 28
tw o- 28
goo se</w> 28
bel t</w> 28
whit e- 28
lem on</w> 28
physi cal</w> 28
tox in</w> 28
blin d</w> 28
wo ol 28
omyc etes</w> 28
alcoho l</w> 28
anter ior</w> 28
a uc 27
a ve</w> 27
i re 27
u de</w> 27
c ast</w> 27
f light</w> 27
p per 27
p av 27
v al</w> 27
g li 27
k el 27
j i 27
j et</w> 27
in ary</w> 27
er c 27
or tho 27
st aff</w> 27
at lan 27
ac ter</w> 27
ac tivity</w> 27
re ad 27
re search</w> 27
li an</w> 27
ri ver</w> 27
ch it 27
ch est</w> 27
si der 27
co st</w> 27
am y 27
di sh 27
ra in</w> 27
es cence</w> 27
th in 27
la bi 27
la gin 27
is s 27
et ing</w> 27
om e</w> 27
om ys</w> 27
ter ror 27
id enti 27
us ti 27
us ing</w> 27
to - 27
em plo 27
sp ider</w> 27
ap pro 27
con gre 27
pro gram 27
ne o 27
te l</w> 27
car bon</w> 27
ho p</w> 27
pi on</w> 27
ve st 27
ce le 27
su ff 27
fi g</w> 27
cy cle</w> 27
bu re 27
pl u 27
ry s</w> 27
ari idae</w> 27
sal es</w> 27
sal mon</w> 27
tra in</w> 27
ten nis</w> 27
mat ter</w> 27
clo ver</w> 27
clo ud</w> 27
inter nal</w> 27
pla s 27
sti tu 27
cat ho 27
dy nast 27
stri p</w> 27
den dron</w> 27
sen si 27
chi ef</w> 27
mil l</w> 27
mis si 27
fic i 27
blo od 27
fla g 27
thy ro 27
flow ering</w> 27
dri ver</w> 27
dri ll</w> 27
stra wberry</w> 27
cin nam 27
rus t</w> 27
hom o 27
graph er</w> 27
cephal us</w> 27
fun ction</w> 27
less er</w> 27
dan cing</w> 27
inf ection</w> 27
scre en</w> 27
sac char 27
kno w 27
mam mal</w> 27
sign al</w> 27
bacter ia</w> 27
gly cer 27
inde x</w> 27
omy co 27
rab bit</w> 27
diff er 27
insec t</w> 27
diab etes</w> 27
tobac co</w> 27
archit ec 27
dynast y</w> 27
a w</w> 26
i o</w> 26
i sia</w> 26
i folia</w> 26
u ch 26
u ation</w> 26
c un 26
c idae</w> 26
s me 26
f und</w> 26
p um 26
p ut</w> 26
v ag 26
d at 26
d ental</w> 26
d ust</w> 26
h a</w> 26
h ur 26
h ap 26
b elli 26
g age</w> 26
k y 26
in ten 26
in formation</w> 26
en do 26
an nu 26
ti es</w> 26
ar bor 26
al ter 26
al op 26
al lium</w> 26
ro t 26
st op 26
st eno 26
ac in 26
ac us</w> 26
ac ute</w> 26
re cor 26
re sin</w> 26
re spir 26
le g</w> 26
co effici 26
am ia</w> 26
lo use</w> 26
un g</w> 26
po ster 26
ter m</w> 26
id aceae</w> 26
us er</w> 26
em ati 26
bo g</w> 26
bo le 26
bo ur 26
sh ock</w> 26
mo d 26
qu anti 26
he ath</w> 26
car ia</w> 26
so da</w> 26
be am</w> 26
gu lar</w> 26
au thor 26
ru n</w> 26
gre s 26
tro ph 26
iz a</w> 26
der ma</w> 26
ha m</w> 26
sal e</w> 26
tu ral</w> 26
low - 26
bro om</w> 26
oph thal 26
rin a</w> 26
od or 26
tr uck</w> 26
pal e 26
tur tle</w> 26
sk i</w> 26
ang er</w> 26
hal l</w> 26
gol den 26
fin an 26
ist ry</w> 26
ear th 26
pit ch</w> 26
mem bran 26
epi lep 26
del ph 26
high - 26
produc t</w> 26
neph ro 26
oy ster</w> 26
cloth es</w> 26
distri bu 26
camer a</w> 26
therm ometer</w> 26
coeffici ent</w> 26
n yc 25
u ght</w> 25
r ut 25
c rat 25
s k</w> 25
s i</w> 25
e ven 25
e lia</w> 25
e chin 25
p tus</w> 25
d rin 25
d rum</w> 25
b ad 25
g ic</w> 25
g ger</w> 25
k ill 25
z in 25
in ia</w> 25
en ic 25
an ch 25
an ia</w> 25
an emia</w> 25
ar a</w> 25
al er</w> 25
on a</w> 25
at ro 25
at ten 25
re gul 25
li sation</w> 25
ri an</w> 25
ch i</w> 25
ch im 25
si t 25
si x 25
co st 25
lo ph 25
lo ck 25
di v 25
di ver 25
es tion</w> 25
el us</w> 25
de l</w> 25
et o 25
et um</w> 25
ul der</w> 25
us a</w> 25
to e</w> 25
to wn</w> 25
em p 25
sp as 25
ap par 25
con cer 25
he pati 25
com plex</w> 25
op athy</w> 25
car i 25
car din 25
hy p 25
hy dra 25
do wn 25
ma t</w> 25
ma king</w> 25
tri al</w> 25
ast ro 25
ru b</w> 25
and ro 25
ex plo 25
cy no 25
fo x 25
wh ip 25
can cer</w> 25
ser i 25
anth es</w> 25
ath ing</w> 25
comm it 25
tu ce</w> 25
od y 25
ric a</w> 25
met ry</w> 25
ep ic 25
the at 25
rh ag 25
sn ap 25
cul ture</w> 25
son ia</w> 25
af ter 25
squ ash</w> 25
hal f- 25
ner v 25
tan k</w> 25
gol f</w> 25
iri sh</w> 25
bul l</w> 25
gy ro 25
pul mon 25
ful l</w> 25
jun c 25
mid dle</w> 25
aph asia</w> 25
odon tidae</w> 25
uni ver 25
ocy te</w> 25
sno w</w> 25
cere bral</w> 25
spiri t</w> 25
rhe a</w> 25
att ack</w> 25
partic le</w> 25
wag on</w> 25
matri x</w> 25
carol in 25
wast e</w> 25
alph ab 25
christ mas</w> 25
decim al</w> 25
traff ic</w> 25
spru ce</w> 25
chest nut</w> 25
emplo y 25
a ur 24
t v</w> 24
u l</w> 24
r i</w> 24
m ec 24
l i</w> 24
l ub 24
c id 24
c ath 24
o zo 24
s und 24
s uckle</w> 24
e i 24
e ve</w> 24
e ball</w> 24
e ering</w> 24
f an</w> 24
f ut 24
f at</w> 24
f av 24
f inger</w> 24
p ack</w> 24
v y</w> 24
' - 24
d ' 24
w hole</w> 24
h is 24
h im 24
b ap 24
g om 24
g ut 24
z oo 24
en si 24
ti de</w> 24
ar d 24
al mon 24
on g</w> 24
at - 24
at ry</w> 24
ac tor</w> 24
re vol 24
re cord</w> 24
li th 24
lo tus</w> 24
di ss 24
ra ti 24
es '</w> 24
ph lo 24
il us</w> 24
is cus</w> 24
ic ul 24
po m 24
de mo 24
mo on 24
mo tor 24
ad ver 24
qu et</w> 24
ne e</w> 24
op la 24
me th 24
car bon 24
car pet</w> 24
ho sp 24
so ft 24
do r</w> 24
do or 24
par is</w> 24
be ard</w> 24
be aut 24
ma in</w> 24
we dding</w> 24
ff er</w> 24
tri dge</w> 24
ve si 24
wor ship</w> 24
mar riage</w> 24
sa x 24
sa m</w> 24
fo x</w> 24
ss a</w> 24
iz ed</w> 24
ser ve</w> 24
os cope</w> 24
cre eping</w> 24
dis c</w> 24
fe ather</w> 24
my co 24
cer at 24
ob acter 24
ob ject</w> 24
str a</w> 24
str um</w> 24
bre ad 24
pa in 24
ple uro 24
ric ul 24
gar lic</w> 24
hi p</w> 24
cap ital</w> 24
duc tor</w> 24
the ater</w> 24
tom ato</w> 24
rh us</w> 24
son g</w> 24
ban e</w> 24
but ton</w> 24
boo t</w> 24
cam p</w> 24
har mon 24
pat ri 24
hem i 24
uri dae</w> 24
fal l</w> 24
cir cle</w> 24
bit ter 24
let tuce</w> 24
pot assi 24
rub us</w> 24
flu x</w> 24
flo or</w> 24
chro mo 24
mid - 24
wri ter</w> 24
wri ting</w> 24
eff ect</w> 24
sper mum</w> 24
ophy ta</w> 24
hoo k</w> 24
psycho logy</w> 24
leu k 24
stoc k 24
bot tom</w> 24
long - 24
foli us</w> 24
wol f</w> 24
need le</w> 24
philo soph 24
opsi da</w> 24
honey suckle</w> 24
fing er 24
pud ding</w> 24
anem one</w> 24
saxi fra 24
euphor bia</w> 24
frequ ency</w> 24
gres sion</w> 24
n es 23
i as</w> 23
r ar 23
l li 23
c ent</w> 23
c ig 23
p al</w> 23
d ent 23
d ar</w> 23
b am 23
b es 23
b ru 23
g i</w> 23
g um 23
g ang 23
k u 23
z en</w> 23
er n 23
er ation</w> 23
an n 23
an i 23
ar i</w> 23
ar tem 23
ar ts</w> 23
al l 23
ro of</w> 23
st es</w> 23
re ver 23
re ading</w> 23
li p 23
li ver</w> 23
li tho 23
ri can 23
ch ol 23
si ght</w> 23
le gi 23
le ader</w> 23
am mon 23
lo bium</w> 23
di et</w> 23
gen ital</w> 23
ra z 23
ph ili 23
it o</w> 23
po p 23
as cen 23
se qu 23
id al</w> 23
em e</w> 23
bo x 23
ap er</w> 23
ap or 23
mo ur</w> 23
ab sor 23
oc key</w> 23
lan ding</w> 23
op en</w> 23
op tical</w> 23
pe ople</w> 23
ho g</w> 23
so ap</w> 23
ran g 23
gra de</w> 23
pi ano</w> 23
no tation</w> 23
we e 23
we ar</w> 23
ve hic 23
wor king</w> 23
ste p</w> 23
ex pen 23
ex erc 23
fi b 23
sa int</w> 23
ath emati 23
pen n 23
my ri 23
cer ti 23
gro w 23
pa e 23
ple as 23
ster ia</w> 23
anti - 23
ep ig 23
sho w 23
sw i 23
eg y 23
glo bu 23
sco tch</w> 23
rat tle 23
fla t</w> 23
tion ist</w> 23
trac tion</w> 23
rus sian</w> 23
pter a</w> 23
hol d</w> 23
hol ly</w> 23
sol anum</w> 23
cas u 23
run ning</w> 23
hydro chloride</w> 23
ju ice</w> 23
chlor o 23
jun i 23
swe et 23
bom b 23
lep id 23
fra x 23
goo se 23
new s</w> 23
black - 23
gast ric</w> 23
tam ar 23
sup port</w> 23
sty le</w> 23
dig it 23
fran c</w> 23
net tle</w> 23
fol k</w> 23
person ality</w> 23
audi tory</w> 23
encephal itis</w> 23
tempor al</w> 23
sad dle</w> 23
fig ure</w> 23
scho ol 23
hyn chus</w> 23
leag ue</w> 23
exec u 23
eag le</w> 23
maid en 23
throm bo 23
laure l</w> 23
agre ement</w> 23
atlan tic</w> 23
respir atory</w> 23
beaut y</w> 23
potassi um</w> 23
a vi 22
a ena</w> 22
m ium</w> 22
c r 22
c ric 22
o t 22
o e 22
o se</w> 22
o ver</w> 22
o logical</w> 22
f low</w> 22
f old</w> 22
p ia</w> 22
d i</w> 22
d ary</w> 22
d ence</w> 22
w as 22
w age</w> 22
b an</w> 22
g lu 22
g az 22
k o</w> 22
k ia</w> 22
0 s</w> 22
en ia</w> 22
er er</w> 22
er is</w> 22
er ror</w> 22
or ig 22
or ity</w> 22
al g 22
al ec 22
al der</w> 22
st e</w> 22
st ac 22
st and</w> 22
ac coun 22
re tic 22
re ment</w> 22
li t</w> 22
li ving</w> 22
ri f 22
ri ce</w> 22
ch at 22
ch as 22
ch et</w> 22
ch lam 22
lo id</w> 22
di p 22
di sc 22
di st</w> 22
th am 22
la c</w> 22
la tive</w> 22
la tin</w> 22
un a</w> 22
un culus</w> 22
it alian</w> 22
po in 22
po ss 22
po ten 22
as per 22
as sem 22
de posi 22
de dness</w> 22
sh am 22
sh ade</w> 22
mo u 22
mo on</w> 22
con ce 22
pro ced 22
com mand</w> 22
lan ce 22
ne a</w> 22
me dium</w> 22
hy acin 22
ho t 22
do li 22
par am 22
be ach</w> 22
vi ri 22
vi ola</w> 22
we ap 22
ly si 22
ge e</w> 22
cal o 22
tre m 22
ber gia</w> 22
fo wl</w> 22
ci an</w> 22
go at</w> 22
pl ing</w> 22
anth ro 22
lin er</w> 22
ni um</w> 22
my s</w> 22
por t 22
bre ak</w> 22
hor iz 22
cro co 22
ple c 22
tt a</w> 22
pal u 22
tor ia</w> 22
bra ss</w> 22
americ anus</w> 22
ero s</w> 22
chi p</w> 22
mil e</w> 22
eg g 22
ed ness</w> 22
gn ath 22
cam pan 22
stra ight</w> 22
form is</w> 22
trac k</w> 22
az ine</w> 22
yc le</w> 22
bas ket 22
bas eball</w> 22
est ate</w> 22
des ert</w> 22
bat tery</w> 22
fle x 22
na il</w> 22
bla dder</w> 22
som e</w> 22
mel an 22
sli p</w> 22
ax is</w> 22
cit rus</w> 22
chem istry</w> 22
pun c 22
brac hy 22
haem o 22
adi an</w> 22
psi lo 22
bet a</w> 22
whit e 22
sym bo 22
-o ff</w> 22
pig eon</w> 22
sim ple</w> 22
coo kie</w> 22
aco ustic</w> 22
liqu id</w> 22
pus h 22
deli very</w> 22
quad ri 22
four - 22
ana emia</w> 22
scar let</w> 22
haw k</w> 22
pois on</w> 22
plic ation</w> 22
max im 22
kan gar 22
sour ce</w> 22
judg ment</w> 22
officin alis</w> 22
domes tic</w> 22
clim bing</w> 22
salam ander</w> 22
eur y 22
eucaly ptus</w> 22
veget able</w> 22
brassi ca</w> 22
finan cial</w> 22
proced ure</w> 22
a in</w> 21
a ero 21
n in 21
t z</w> 21
t ent 21
i fer 21
c ation</w> 21
o w 21
o des</w> 21
s mu 21
e as 21
f a</w> 21
f ab 21
v an</w> 21
v ic</w> 21
d aceae</w> 21
d av 21
d ram 21
w a</w> 21
w ing 21
h ag 21
h op 21
b - 21
b id 21
g al</w> 21
g il 21
k up</w> 21
j ury</w> 21
in aceae</w> 21
en on</w> 21
an e 21
an atom 21
ti li 21
al o</w> 21
st le 21
st le</w> 21
st atic</w> 21
ch y 21
le ather</w> 21
co co 21
am on 21
di al</w> 21
ra ge</w> 21
ph ra 21
th iness</w> 21
ic ar 21
el der</w> 21
it ation</w> 21
de x 21
to i 21
to wer</w> 21
em o 21
bo u 21
bo s</w> 21
sh er</w> 21
sh op 21
sh ape</w> 21
ab sol 21
con ven 21
con tra 21
oc cid 21
he av 21
pro b 21
com bin 21
lan tern</w> 21
ne ut 21
ent ry</w> 21
ig u 21
sc ler 21
te x</w> 21
car rier</w> 21
so up</w> 21
par i 21
vi ol 21
au ri 21
cal cium</w> 21
ci vi 21
ven ae</w> 21
can di 21
bal lo 21
av a</w> 21
sub stance</w> 21
dic t</w> 21
cer ato 21
hor ned</w> 21
shi p 21
pin n 21
py th 21
gal lin 21
fac tory</w> 21
cent ro 21
mil let</w> 21
hal i 21
pho li 21
hem o 21
ben ch</w> 21
dra wing</w> 21
non - 21
pur pu 21
cas h</w> 21
cas sia</w> 21
gran d 21
hydro gen</w> 21
cle mati 21
bit al</w> 21
bit ter</w> 21
ear th</w> 21
fa ult</w> 21
lar ge</w> 21
flu id</w> 21
trans mission</w> 21
fri till 21
som eness</w> 21
hon ey</w> 21
sli pper</w> 21
doub le- 21
inf ant</w> 21
acc es 21
spin al</w> 21
commun ity</w> 21
hun ting</w> 21
cab bage</w> 21
pec tor 21
scri pt</w> 21
zz le</w> 21
rhy thm</w> 21
quar ter</w> 21
tex t</w> 21
genti an</w> 21
fore ign</w> 21
gym n 21
foot ball</w> 21
fem ale</w> 21
tech no 21
condi tion 21
pay ment</w> 21
fish ing</w> 21
buff alo</w> 21
sick ness</w> 21
roll er</w> 21
respon se</w> 21
commer cial</w> 21
seas on</w> 21
educ ation</w> 21
spur ge</w> 21
fram e</w> 21
cog ni 21
dial ect</w> 21
missi le</w> 21
architec ture</w> 21
poster ior</w> 21
chlam y 21
a il 20
a id</w> 20
n on</w> 20
n est</w> 20
t ing 20
i el</w> 20
i ster</w> 20
i fication</w> 20
u an</w> 20
u pper</w> 20
u lidae</w> 20
m p</w> 20
m ack 20
m athemati 20
l ace</w> 20
c on</w> 20
c ker</w> 20
c able</w> 20
o z 20
o x</w> 20
o tus</w> 20
o graph</w> 20
s o</w> 20
e e 20
e b 20
f id 20
f oc 20
f igh 20
f t- 20
f ather</w> 20
v ity</w> 20
h inus</w> 20
b ec 20
b um 20
g l 20
g ad 20
y on</w> 20
k an</w> 20
x ia</w> 20
z an 20
en er</w> 20
en ing</w> 20
ti co 20
ti ger</w> 20
ti tude</w> 20
ar thro 20
or nis</w> 20
al e 20
al ing</w> 20
al ve 20
al pha</w> 20
ro und 20
st - 20
st ron 20
on s</w> 20
ac er</w> 20
ac le</w> 20
re g 20
re al</w> 20
re ven 20
re produc 20
li br 20
ch idae</w> 20
si dae</w> 20
le pi 20
le mon 20
co ach</w> 20
am or 20
di e</w> 20
ph thal 20
ph obia</w> 20
la bor 20
ur n 20
it er</w> 20
as s 20
as par 20
as pi 20
as pl 20
de mon 20
de vil</w> 20
ul aris</w> 20
se e 20
bo b 20
bo y 20
bo ar 20
sp len 20
ap ri 20
mo le</w> 20
mo sch 20
qu ir 20
per us</w> 20
con son 20
pro gre 20
pro por 20
com mon 20
oo t</w> 20
me dia</w> 20
ati s</w> 20
ace ous</w> 20
pi um</w> 20
no v 20
gu il 20
ke l</w> 20
ta ke 20
tic k</w> 20
rac h 20
rac ing</w> 20
ex o 20
ex change</w> 20
phy to 20
sa w 20
sa il</w> 20
ber t</w> 20
cu p 20
ci pit 20
ss ness</w> 20
ari anism</w> 20
tra p</w> 20
sub division</w> 20
tu lip</w> 20
ob li 20
bre aker</w> 20
eu r</w> 20
inter est</w> 20
pa int</w> 20
pa int 20
tr en 20
cap ri 20
tur ni 20
tur key</w> 20
sw al 20
mer cur 20
cent re</w> 20
pu ff 20
trac he 20
pter us</w> 20
stre pto 20
gla u 20
spec trum</w> 20
spor e</w> 20
poli cy</w> 20
oper ating</w> 20
electro n</w> 20
sph er 20
sph inc 20
asi an</w> 20
mel on</w> 20
cry stal</w> 20
acc el 20
secon dary</w> 20
ki lo 20
nar row 20
vent ri 20
ment ation</w> 20
ery th 20
je w 20
chri sti 20
virgin ia</w> 20
nig ra</w> 20
too th 20
cand y</w> 20
gym no 20
cross - 20
dut ch</w> 20
autom atic</w> 20
stud y</w> 20
lob ster</w> 20
ich thy 20
engin eer</w> 20
exter nal</w> 20
pneum onia</w> 20
crimin al</w> 20
admini stration</w> 20
jas mine</w> 20
trum pet</w> 20
chrys anthemum</w> 20
paci fic</w> 20
develo pment</w> 20
joh n 20
almon d</w> 20
vehic le</w> 20
grow th</w> 20
globu lin</w> 20
execu tive</w> 20
maiden hair</w> 20
clemati s</w> 20
sphinc ter</w> 20
a o</w> 19
t ine</w> 19
t ment</w> 19
t ry 19
t rin 19
i m</w> 19
i fera</w> 19
i thecus</w> 19
l ing 19
c lam 19
o wl</w> 19
s word</w> 19
s ses</w> 19
e um</w> 19
e du 19
e lis</w> 19
f o</w> 19
f lan 19
f agus</w> 19
p sis</w> 19
p ill</w> 19
d ine</w> 19
w ool</w> 19
h ell 19
g no 19
g rac 19
y ew</w> 19
k or 19
k ory</w> 19
k iness</w> 19
j us 19
in k</w> 19
in er 19
in et</w> 19
in vest 19
er i</w> 19
ti re</w> 19
ar gen 19
ar ven 19
ar chi 19
ar cha 19
or n</w> 19
al k 19
st or</w> 19
st atus</w> 19
re - 19
re con 19
re tro 19
re serve</w> 19
li li 19
ri g</w> 19
ri n</w> 19
ri te</w> 19
le af 19
le ft</w> 19
le dge</w> 19
am ide</w> 19
lo co 19
lo qu 19
lo sis</w> 19
di s</w> 19
gen etic</w> 19
es sion</w> 19
ph ere</w> 19
il li 19
il lin</w> 19
el a</w> 19
et ry</w> 19
ul ator</w> 19
ul mus</w> 19
bo sc 19
mo le 19
mo tive</w> 19
ab domin 19
ad v 19
con stant</w> 19
he dron</w> 19
com bat</w> 19
lan e</w> 19
ent ed</w> 19
me t</w> 19
me n</w> 19
me - 19
me al</w> 19
me eting</w> 19
car o 19
hy bri 19
ho e</w> 19
so l</w> 19
gra vit 19
bi lis</w> 19
mon y</w> 19
im ag 19
tic um</w> 19
tic ian</w> 19
ru d 19
ste am</w> 19
pre si 19
mar ch</w> 19
fi ed</w> 19
ge ometry</w> 19
cy pri 19
phy ta</w> 19
tre at 19
fo ur</w> 19
gre ater</w> 19
gi um</w> 19
ser ge 19
ha y 19
bal sam</w> 19
tra ining</w> 19
my c 19
ten ess</w> 19
ten se</w> 19
cer v 19
oph or 19
hor n 19
mat ch</w> 19
pa ir</w> 19
pal at 19
pal ae 19
hi er 19
hi on</w> 19
sti l 19
cat cher</w> 19
bir d 19
io us</w> 19
bri um</w> 19
bri tish</w> 19
gal l 19
mor ph 19
char acter</w> 19
ban ana</w> 19
glo ve</w> 19
fic ial</w> 19
ner vus</w> 19
cam pa 19
stra w</w> 19
har d 19
hem p</w> 19
tal l</w> 19
fu sion</w> 19
dra ft</w> 19
vo ice</w> 19
din ner</w> 19
sol ution</w> 19
pul se</w> 19
bat tle</w> 19
thro at</w> 19
fa il 19
she ep 19
chro no 19
bla st</w> 19
tw ent 19
spe ed</w> 19
ev ent</w> 19
clu sion</w> 19
sum ac</w> 19
dac ry 19
gram ma</w> 19
orch is</w> 19
psi tt 19
spi ro 19
bell y</w> 19
flor um</w> 19
esthe tic</w> 19
dig ital</w> 19
bacter ium</w> 19
ny mph 19
vac u 19
angi o 19
cran berry</w> 19
indu strial</w> 19
ligh t 19
fur n 19
blin dness</w> 19
hic kory</w> 19
condi tion</w> 19
fas ci 19
yellow - 19
schiz oph 19
meas ure</w> 19
nur se</w> 19
alpin ia</w> 19
acade my</w> 19
profes sional</w> 19
priv ate</w> 19
gau ge</w> 19
cardi ac</w> 19
smoo th</w> 19
magno lia</w> 19
associ ation</w> 19
wool ly</w> 19
bure au</w> 19
cinnam on</w> 19
golden rod</w> 19
membran e</w> 19
epilep sy</w> 19
distribu tion</w> 19
leuk emia</w> 19
rattle snake</w> 19
palu stris</w> 19
kangar oo</w> 19
a f</w> 18
n idae</w> 18
n ica</w> 18
t at 18
t age</w> 18
t ance</w> 18
r al 18
r aceae</w> 18
m ite</w> 18
c is</w> 18
o p</w> 18
o do 18
e 's</w> 18
e sia</w> 18
f it 18
p tive</w> 18
p ile</w> 18
v or 18
d ul 18
d ub 18
d ger</w> 18
h in 18
b s</w> 18
b ent</w> 18
b ric 18
b und 18
g idae</w> 18
g rin 18
k ick</w> 18
x ero 18
z er 18
er idae</w> 18
er ator</w> 18
an ag 18
or ium</w> 18
or eg 18
al as 18
al um 18
ro l</w> 18
ro le</w> 18
ro ast</w> 18
st on</w> 18
st ell 18
st amp</w> 18
on ism</w> 18
ac tiv 18
re s</w> 18
re turn</w> 18
li tt 18
ch in</w> 18
le ar 18
le an</w> 18
co - 18
lo cal</w> 18
di er</w> 18
ra w</w> 18
th an 18
un ding</w> 18
it es</w> 18
po pu 18
po didae</w> 18
as a</w> 18
de b 18
de tec 18
om an</w> 18
se min 18
ter ri 18
ter ing</w> 18
ter ia</w> 18
to ur</w> 18
to ol</w> 18
to wel</w> 18
bo ur</w> 18
sp le 18
sh re 18
mo ther 18
ol atry</w> 18
ab or 18
ec tes</w> 18
con ve 18
con den 18
con nec 18
pro tec 18
com ple 18
ub a</w> 18
lan t</w> 18
ent um</w> 18
sc ra 18
me la 18
ati sm</w> 18
te am</w> 18
pe ace</w> 18
ho li 18
so ur</w> 18
par al 18
par asi 18
par sle 18
par alle 18
ran ce</w> 18
be t</w> 18
no un</w> 18
ma id</w> 18
for tun 18
im age</w> 18
ly - 18
bl en 18
ce ps</w> 18
mar sh 18
mar iti 18
ell y</w> 18
fi f 18
fi li 18
cy lin 18
tre ss</w> 18
man ship</w> 18
fo und 18
bu lar</w> 18
can t</w> 18
ser ies</w> 18
min im 18
ari sto 18
lin e 18
sal is</w> 18
plan tain</w> 18
pen ny</w> 18
cla m</w> 18
dic a</w> 18
dic tion</w> 18
pri ck 18
mal ign 18
bre ast 18
oph is</w> 18
cro w 18
cro tal 18
pla stic</w> 18
ty - 18
ty ran 18
cho le 18
tr a</w> 18
ric al</w> 18
met abo 18
hi bi 18
hi bis 18
sk y 18
sk ir 18
sti t 18
ep s</w> 18
ep is 18
sho ulder</w> 18
sw im 18
war fare</w> 18
fac ial</w> 18
char acter 18
tom a</w> 18
rh om 18
cent au 18
men ing 18
sco t 18
abili s</w> 18
hem or 18
serv ic 18
tal k</w> 18
bor e 18
ben zo 18
hol ding</w> 18
equ is 18
wal king</w> 18
syn the 18
run ner</w> 18
lat eral</w> 18
ju di 18
ker ato 18
flo ur</w> 18
fra gran 18
bla de</w> 18
coc cin 18
ori ental</w> 18
air craft</w> 18
organ ic</w> 18
mem ber</w> 18
sle ep</w> 18
ant um</w> 18
ophy ceae</w> 18
pun ch</w> 18
brac hi 18
haem at 18
bab y 18
spi ke</w> 18
oli ve</w> 18
cut ter</w> 18
tax us</w> 18
enter o 18
cel ery</w> 18
ony x</w> 18
pti an</w> 18
angi um</w> 18
myr tle</w> 18
hear t 18
hear ing</w> 18
span iel</w> 18
sati va</w> 18
neg ative</w> 18
buil der</w> 18
hab enaria</w> 18
contin u 18
sag it 18
rail road</w> 18
free dom</w> 18
cl ub 18
orni th 18
judg ement</w> 18
engin eering</w> 18
prac tice</w> 18
wic h</w> 18
stati stic 18
fair y</w> 18
guin ea</w> 18
scienti st</w> 18
kid ney</w> 18
exam ination</w> 18
stitu tion</w> 18
fici ency</w> 18
sme ar</w> 18
bole tus</w> 18
hyp no 18
exerc ise</w> 18
egy ptian</w> 18
toi let</w> 18
libr ary</w> 18
conson ant</w> 18
serge ant</w> 18
hibis cus</w> 18
a i 17
n oo 17
n ations</w> 17
t z 17
t el 17
t te</w> 17
t ata</w> 17
m s</w> 17
m o</w> 17
m es</w> 17
o il 17
s op 17
s phy 17
e or 17
e idae</w> 17
f li 17
f es 17
f ect</w> 17
p o</w> 17
p ir 17
v apo 17
d w 17
d ag 17
d ge 17
w ash</w> 17
h i</w> 17
h ero 17
h ind 17
h ockey</w> 17
b i</w> 17
b ine</w> 17
b rus 17
b ble</w> 17
b run 17
g - 17
g el 17
g ru 17
g len 17
y ar 17
y man</w> 17
k it</w> 17
x is</w> 17
z o</w> 17
1 0 17
er u 17
an ea</w> 17
an esthesia</w> 17
ti g 17
ar o 17
al us</w> 17
ro s 17
ro x 17
ro ut 17
ro pe</w> 17
ro sa</w> 17
st ap 17
on - 17
on ian</w> 17
at ch</w> 17
ac ri 17
ac ty 17
re ss</w> 17
re ci 17
li d</w> 17
ri ding</w> 17
ch ant</w> 17
ch ina</w> 17
le can 17
le bor 17
co ast</w> 17
co smo 17
am er</w> 17
lo x 17
lo ad</w> 17
lo sa</w> 17
gen ic</w> 17
ra il</w> 17
th u 17
th ing</w> 17
la v 17
la dder</w> 17
ic ide</w> 17
ic era</w> 17
ur er</w> 17
as s</w> 17
de ter 17
de ad 17
de ficiency</w> 17
om enon</w> 17
ter er</w> 17
ter us</w> 17
ag er</w> 17
to pus</w> 17
sh an 17
mo or 17
mo ll 17
ol ine</w> 17
ad or 17
he lor</w> 17
pro jection</w> 17
ig old</w> 17
pe z 17
pe ar</w> 17
pe pper 17
car dio 17
car riage</w> 17
hy dri 17
so le 17
do u 17
gra in</w> 17
be l</w> 17
pi m 17
pi per</w> 17
ma y</w> 17
ma sto 17
bi ology</w> 17
cor di 17
ly n 17
ly m 17
au x 17
au re 17
bl y</w> 17
ce li 17
ce bus</w> 17
pre gn 17
pre hen 17
mar i 17
mar igold</w> 17
su pre 17
ex tra 17
sa us 17
ber mu 17
bu d</w> 17
go d</w> 17
go ur 17
can e</w> 17
can al</w> 17
der mat 17
min ute</w> 17
os um</w> 17
lin ear</w> 17
sal ic 17
col on 17
fe lis</w> 17
tu mor</w> 17
mu g 17
gro use</w> 17
oph i 17
ty m 17
shi ft</w> 17
tr am 17
tin c 17
tur n 17
tur k 17
sti mul 17
cat tle</w> 17
stri ped</w> 17
sw itch</w> 17
war bler</w> 17
lor d</w> 17
sen ec 17
sen sation</w> 17
gal e</w> 17
sn ake 17
cent r 17
son 's</w> 17
ton ic</w> 17
ton 's</w> 17
mac y</w> 17
sur ve 17
af t</w> 17
jo b</w> 17
fla sh</w> 17
sil k</w> 17
cin er 17
hem lock</w> 17
bac illus</w> 17
bac helor</w> 17
hom e 17
fu el</w> 17
dra w 17
lon icera</w> 17
ish ing</w> 17
ish ment</w> 17
equ i 17
wal ker</w> 17
lat hy 17
cri sp 17
fa ir</w> 17
stom us</w> 17
lar yn 17
spor ts</w> 17
idi ty</w> 17
aly sis</w> 17
cli p</w> 17
ocar p 17
xi co 17
goo ds</w> 17
def ence</w> 17
ham mer</w> 17
jap onica</w> 17
sou th 17
spar row</w> 17
alo g</w> 17
sta phy 17
hel lebor 17
physi cs</w> 17
pac hy 17
soci ety</w> 17
bil li 17
syl v 17
syl la 17
multi ple</w> 17
net work</w> 17
clin ical</w> 17
chil d 17
que en</w> 17
suc ker</w> 17
arm s</w> 17
stu ff 17
tex as</w> 17
sing le</w> 17
austr alis</w> 17
basi c</w> 17
gloss um</w> 17
vet ch</w> 17
jam a 17
four th</w> 17
frac ture</w> 17
phos phate</w> 17
pois oning</w> 17
ordin ate</w> 17
coron ary</w> 17
jum ping</w> 17
shoo ting</w> 17
mom ent</w> 17
lady 's</w> 17
fring ed</w> 17
aeg us</w> 17
devil 's</w> 17
vaccin ium</w> 17
temper ature</w> 17
amy g 17
know ledge</w> 17
crat aegus</w> 17
explo sive</w> 17
commit tee</w> 17
univer sal</w> 17
artem isia</w> 17
expen se</w> 17
frax inus</w> 17
stac hy 17
rif le</w> 17
smu t</w> 17
occid entalis</w> 17
progre ssi 17
mercur y</w> 17
christi an</w> 17
invest ment</w> 17
fail ure</w> 17
parsle y</w> 17
a g</w> 16
a ven 16
a eth 16
n id 16
n aceae</w> 16
t ability</w> 16
i er</w> 16
i ro 16
u k 16
r na</w> 16
m idae</w> 16
o bo 16
o lar</w> 16
o idea</w> 16
e si 16
e de 16
e der</w> 16
e el</w> 16
e ating</w> 16
e aster</w> 16
f ence</w> 16
p ay</w> 16
p tom 16
p athy</w> 16
v ec 16
v is</w> 16
d rum 16
w is 16
w ell 16
w ido 16
h ad 16
h ub 16
h ing 16
h ack 16
h ang 16
h und 16
h ud 16
h itter</w> 16
b ak 16
b ite</w> 16
b low 16
b ill 16
b ile</w> 16
g es 16
g gar 16
g lac 16
g inger</w> 16
y uc 16
- tailed</w> 16
x y</w> 16
j or 16
j ump</w> 16
en wort</w> 16
en zy 16
er on</w> 16
an ian</w> 16
ti fication</w> 16
ar ing</w> 16
or rhea</w> 16
al bi 16
ro bin</w> 16
st am 16
at er 16
at tor 16
ac um</w> 16
re l 16
re ti 16
li ft</w> 16
ch a</w> 16
ch le 16
ch is 16
ch um</w> 16
ch ess</w> 16
ch eno 16
si gh 16
si lic 16
co s 16
co ph 16
co il</w> 16
am e</w> 16
lo p</w> 16
lo ss</w> 16
di ve</w> 16
di aceae</w> 16
di stric 16
gen e 16
ra n</w> 16
ra ff 16
ra dar</w> 16
ph le 16
th um 16
la m</w> 16
la yer</w> 16
is ing</w> 16
un k</w> 16
un ci 16
el ine</w> 16
it h</w> 16
po ker</w> 16
as cle 16
de w</w> 16
de ity</w> 16
de fin 16
de aler</w> 16
et aceae</w> 16
om on 16
se par 16
to po 16
em on 16
em bry 16
bo di 16
bo un 16
bo wl</w> 16
sp re 16
sp lit</w> 16
sh ut 16
sh ire</w> 16
ap in</w> 16
ir a</w> 16
mo vi 16
mo ea</w> 16
ad ju 16
ad vis 16
um e</w> 16
um a</w> 16
con sul 16
con sum 16
com yc 16
lan der</w> 16
op ia</w> 16
me an</w> 16
ati veness</w> 16
pe e</w> 16
pe dium</w> 16
ho using</w> 16
par th 16
gra du 16
be ha 16
ver b</w> 16
pi on 16
we b</w> 16
gu er 16
gu ar 16
bi an</w> 16
ta ke</w> 16
wor m 16
mar gin 16
fi st 16
cy be</w> 16
phy te</w> 16
ili s</w> 16
man di 16
cu le</w> 16
bu d 16
bu g 16
ss um</w> 16
pl ut 16
ser rat 16
bal l 16
bal li 16
os ine</w> 16
os oma</w> 16
ath le 16
sal v 16
tra vel</w> 16
fe e</w> 16
fe ast</w> 16
mu d</w> 16
por us</w> 16
mal ac 16
ob ile</w> 16
bre ast</w> 16
oph orus</w> 16
bar bar 16
bar rier</w> 16
bar rel</w> 16
clo sed</w> 16
du e</w> 16
sk in 16
ang a</w> 16
den cy</w> 16
ren ia</w> 16
sen na</w> 16
fac tion</w> 16
mor t 16
mor el</w> 16
char t</w> 16
char is</w> 16
lam b</w> 16
ox id 16
lic ense</w> 16
cur ve</w> 16
wil l</w> 16
bur n</w> 16
har e</w> 16
gol d 16
tion er</w> 16
her pes</w> 16
az o 16
ey ed</w> 16
ben z 16
mas k</w> 16
dra gon</w> 16
stre am</w> 16
chan ge 16
fin der</w> 16
gla bra</w> 16
wal nut</w> 16
hydro xy 16
tele scope</w> 16
bit or</w> 16
cri me</w> 16
posi tive</w> 16
spor idia</w> 16
oper a</w> 16
idi dae</w> 16
lac t 16
fra g 16
phi la 16
sul ph 16
hum an 16
wi th 16
new sp 16
mati dae</w> 16
ham am 16
stat ement</w> 16
shor t 16
sun flower</w> 16
stin king</w> 16
zy go 16
sat ur 16
cran ial</w> 16
rho do 16
immun e</w> 16
dry opteris</w> 16
resi stance</w> 16
genti ana</w> 16
sing le- 16
vulgar e</w> 16
soli d</w> 16
canad a</w> 16
vas cular</w> 16
king dom</w> 16
bear er</w> 16
autom obile</w> 16
arti ficial</w> 16
stud ent</w> 16
disp lay</w> 16
rail way</w> 16
ske let 16
cler k</w> 16
arcto s</w> 16
corpor ation</w> 16
sav ings</w> 16
colle ge</w> 16
repres ent 16
ely pteris</w> 16
methy l</w> 16
teach er</w> 16
ipo moea</w> 16
shir t</w> 16
cele sti 16
flag ell 16
pulmon ary</w> 16
alphab et</w> 16
sund ay</w> 16
hosp ital</w> 16
pop lar</w> 16
cric ket</w> 16
basket ball</w> 16
absol ute</w> 16
pari et 16
reven ue</w> 16
aspl enium</w> 16
jus tice</w> 16
sple enwort</w> 16
tym pan 16
lathy rus</w> 16
distric t</w> 16
a or 15
t as 15
t iness</w> 15
t ana</w> 15
t ten</w> 15
i od 15
m i</w> 15
m ation</w> 15
m uc 15
m ar</w> 15
m ary</w> 15
m ast</w> 15
l d 15
l lium</w> 15
c ten 15
c lar 15
c uck 15
o st 15
o ur</w> 15
o saurus</w> 15
o strac 15
s ne 15
s lu 15
e i</w> 15
f ia</w> 15
f ag 15
f ter</w> 15
f ast 15
f ting</w> 15
p age</w> 15
p rat 15
v in</w> 15
v es</w> 15
d weed</w> 15
w an 15
h es 15
b ad</w> 15
b ber 15
b ber</w> 15
b uck</w> 15
g r 15
k s 15
k ur 15
- in</w> 15
- in- 15
j es 15
1 1 15
in i 15
in tro 15
in her 15
er ship</w> 15
an ten 15
ti p</w> 15
ti lus</w> 15
ar c</w> 15
ar mor 15
ar gon 15
or ship</w> 15
al lis</w> 15
al kal 15
ro u 15
ro ad 15
on er</w> 15
on ium</w> 15
at aceae</w> 15
ac id 15
ac tus</w> 15
re as 15
re tin 15
re frac 15
re verse</w> 15
re ference</w> 15
re gular</w> 15
re actor</w> 15
li lium</w> 15
ri al</w> 15
ri st</w> 15
ri tis</w> 15
ri ma</w> 15
si c</w> 15
co ll 15
lo g</w> 15
lo - 15
di n</w> 15
di ap 15
di ll 15
di cot</w> 15
di amon 15
gen y</w> 15
ra u 15
ra x</w> 15
la h</w> 15
la x</w> 15
la si 15
is ance</w> 15
is land</w> 15
is tics</w> 15
ur sus</w> 15
el er</w> 15
el ing</w> 15
po ol</w> 15
de al</w> 15
de pression</w> 15
om ele 15
om ile</w> 15
id ance</w> 15
ag ar 15
us h</w> 15
to uch</w> 15
em ission</w> 15
bo o</w> 15
sp it 15
sp ring 15
ap is</w> 15
ap pen 15
ap pli 15
mo di 15
mo sa</w> 15
ab ies</w> 15
ut ing</w> 15
per si 15
con tr 15
oc eros</w> 15
pro p 15
pro of</w> 15
pro fit</w> 15
ne igh 15
ent ary</w> 15
sc an 15
sc and 15
sc rat 15
op tic</w> 15
car du 15
car tridge</w> 15
so m</w> 15
so le</w> 15
so ap 15
par k</w> 15
be li 15
be ggar 15
ver tic 15
ver tical</w> 15
no - 15
no vi 15
ma p</w> 15
cor ps</w> 15
cor tex</w> 15
au g 15
mar mo 15
cy on</w> 15
ili dae</w> 15
cu lation</w> 15
cu stom 15
cu press 15
ci sion</w> 15
ven tion</w> 15
bu r</w> 15
can adian</w> 15
pl y</w> 15
bal aen 15
min eral</w> 15
os ar 15
os copy</w> 15
fer ti 15
ele v 15
ele ssness</w> 15
sal via</w> 15
cre eper</w> 15
ll us</w> 15
comm is 15
fe ed</w> 15
cla use</w> 15
my elo 15
por tun 15
cer co 15
ob jec 15
str at 15
inter n 15
hi bitor</w> 15
cap acity</w> 15
lu x 15
py ri 15
py ram 15
sti g 15
anti a</w> 15
ron om 15
gal van 15
mor ning</w> 15
ed - 15
but t</w> 15
fic ate</w> 15
fre sh 15
bur num</w> 15
pat h</w> 15
tion ism</w> 15
ey e 15
vir ens</w> 15
chan nel</w> 15
fin al</w> 15
soc k</w> 15
wal k</w> 15
spec tro 15
hydro x 15
lat er 15
pp ed</w> 15
pas si 15
opter y 15
hyper icum</w> 15
oper ator</w> 15
pit cher</w> 15
whe at 15
pres sor</w> 15
vis co 15
asi atic</w> 15
pub lic 15
dan cer</w> 15
organ isation</w> 15
yl um</w> 15
ax e</w> 15
sper m</w> 15
ophy te</w> 15
fro m</w> 15
bio logical</w> 15
ko ut</w> 15
spon ge</w> 15
sand wich</w> 15
bell s</w> 15
fron tal</w> 15
virgin iana</w> 15
sat ure 15
phen omenon</w> 15
iv y</w> 15
secre t</w> 15
kn oc 15
bis cuit</w> 15
immun ity</w> 15
wit ch 15
dog wood</w> 15
var ic 15
xy lo 15
cub ic</w> 15
acet ate</w> 15
genti an 15
bot ry 15
ulo se</w> 15
smal l 15
nas al</w> 15
regi on</w> 15
blue berry</w> 15
bron ze</w> 15
band age</w> 15
orni tho 15
ethy l</w> 15
haz el</w> 15
night shade</w> 15
ever green</w> 15
shri mp</w> 15
bene fit</w> 15
kit chen</w> 15
cover ing</w> 15
alb um</w> 15
quarter s</w> 15
manag ement</w> 15
incom e</w> 15
treas ury</w> 15
hygro phorus</w> 15
exper im 15
chit on</w> 15
iss ance</w> 15
terror ism</w> 15
congre ss</w> 15
quanti ty</w> 15
theat re</w> 15
cath ar 15
soft ware</w> 15
cig ar 15
deposi t</w> 15
lance ol 15
anatom y</w> 15
gl ory</w> 15
archa e 15
campa ign</w> 15
twent y- 15
oreg on</w> 15
shre w</w> 15
mariti ma</w> 15
ascle pi 15
celesti al</w> 15
a ine</w> 14
n is 14
n el 14
t aceae</w> 14
t 's</w> 14
t win 14
t ection</w> 14
i ation</w> 14
u mo 14
u sion</w> 14
m um 14
m elli 14
c lan 14
o ic</w> 14
o gram</w> 14
e o</w> 14
e ut 14
e en</w> 14
e fulness</w> 14
f uc 14
f ight</w> 14
p ic</w> 14
p ru 14
p and 14
p tor</w> 14
p iness</w> 14
p ty 14
v id 14
w y 14
w ra 14
b ati 14
b ula</w> 14
g s</w> 14
g ab 14
g ing 14
g rat 14
y ro 14
y co 14
k u</w> 14
k at 14
k ir 14
k ness</w> 14
k nee</w> 14
x en 14
j ar</w> 14
j elly</w> 14
in o</w> 14
in cen 14
in hibitor</w> 14
en i 14
en gra 14
en idae</w> 14
en ne</w> 14
er el</w> 14
er io 14
an ab 14
an idae</w> 14
an as</w> 14
ti tle</w> 14
ti ousness</w> 14
ar bit 14
or y 14
or - 14
al ea</w> 14
al ler 14
ro sis</w> 14
ac ce 14
ac ris</w> 14
ac acia</w> 14
re le 14
re duc 14
re son 14
re pti 14
re gression</w> 14
li mit 14
ri ch 14
ch io 14
ch thy 14
si li 14
si bility</w> 14
le berry</w> 14
co ag 14
co ty 14
am per 14
lo u 14
lo un 14
lo be</w> 14
di men 14
di chro 14
di ving</w> 14
es ti 14
es cul 14
ph an 14
th rush</w> 14
la n</w> 14
la y 14
la p</w> 14
la go</w> 14
la stic</w> 14
la by 14
is sue</w> 14
it ary</w> 14
po or</w> 14
de ep</w> 14
de mic</w> 14
de oxy 14
de pend 14
et h</w> 14
ul l</w> 14
ul i</w> 14
ul ate</w> 14
se ver 14
se lec 14
se lagin 14
ag es</w> 14
em bo 14
bo a</w> 14
ap ter 14
ir us</w> 14
mo squ 14
mo ld</w> 14
ab y 14
ab strac 14
ad ap 14
ad dress</w> 14
qu il 14
ut en 14
per u 14
per for 14
per fect</w> 14
con st 14
con sc 14
con junc 14
oc actus</w> 14
he dge</w> 14
pro jec 14
lan ce</w> 14
ent a</w> 14
sc ap 14
sc ut 14
op y 14
op tion</w> 14
op el 14
pe ach</w> 14
car po 14
car cin 14
car go</w> 14
hy lo 14
hy ster 14
ho tel</w> 14
par ti 14
par tial</w> 14
ran ge 14
ver sion</w> 14
pi zz 14
vi ver 14
ma st 14
ma ho 14
mon th</w> 14
ta ker</w> 14
cor rec 14
tri p</w> 14
wor ks</w> 14
ast rum</w> 14
ru p</w> 14
ce a</w> 14
mar ch 14
ge al</w> 14
cy ber 14
cy te</w> 14
fo ol 14
tro m 14
ry e</w> 14
der m</w> 14
min ation</w> 14
av o 14
ni co 14
sal t 14
tra il</w> 14
tra vel 14
sub si 14
pen ic 14
cla y</w> 14
ten tion</w> 14
por k</w> 14
por phy 14
dic tionary</w> 14
ill ing</w> 14
gro ss</w> 14
bro w 14
oph ile</w> 14
mat ch 14
inter ior</w> 14
pan cre 14
pan ts</w> 14
pla in</w> 14
pla gue</w> 14
shi eld</w> 14
tr ine</w> 14
tt o</w> 14
met al 14
gar den 14
mi ra 14
hi stor 14
tor ial</w> 14
mus cular</w> 14
sk y</w> 14
sk ate</w> 14
dy s 14
dy e</w> 14
stri ke</w> 14
den sity</w> 14
und o</w> 14
und a</w> 14
war t</w> 14
sen sory</w> 14
ba h 14
mer ia</w> 14
lam b 14
lam in 14
rh ab 14
sn ap</w> 14
cul a</w> 14
ban k 14
cur tain</w> 14
glo mer 14
glo ssi 14
fic us</w> 14
wa it 14
tho us 14
tho ught</w> 14
fla sh 14
gin k 14
cin ia</w> 14
pat ent</w> 14
pat tern</w> 14
her b</w> 14
trac tor</w> 14
rec tus</w> 14
sor e</w> 14
sor rel</w> 14
bor n</w> 14
nor th 14
pet ty</w> 14
fin ch</w> 14
equ us</w> 14
elli dae</w> 14
uri st</w> 14
des k</w> 14
ju ven 14
indi rec 14
indi go</w> 14
pas ser 14
let te</w> 14
vol ution</w> 14
idi an</w> 14
spo on</w> 14
ker 's</w> 14
lac to 14
sph en 14
sph ere</w> 14
sph aer 14
lep ido 14
ocar p</w> 14
pres ent</w> 14
eth ane</w> 14
leg s</w> 14
spe ed 14
wri tten</w> 14
air s</w> 14
wi fe</w> 14
def ect</w> 14
new s 14
sle eping</w> 14
bin ary</w> 14
eri e</w> 14
bet ula</w> 14
commun is</w> 14
ves sel</w> 14
dar k</w> 14
flor ida</w> 14
hand le</w> 14
thre sh 14
qui si 14
lun g</w> 14
vel vet</w> 14
direc tor</w> 14
ses sion</w> 14
butter cup</w> 14
oce an 14
til le 14
rela tivity</w> 14
loo p</w> 14
produc tion</w> 14
cott on 14
cock tail</w> 14
myr me 14
water - 14
stand ing</w> 14
loc ation</w> 14
loc ust</w> 14
sig mo 14
dacty lus</w> 14
econom y</w> 14
gor illa</w> 14
alli gator</w> 14
bear ing</w> 14
ana esthesia</w> 14
thri tis</w> 14
lingu istic</w> 14
fel low</w> 14
ocephal us</w> 14
sus pen 14
chon dri 14
bol t</w> 14
cuc um 14
fon t</w> 14
whis key</w> 14
wre n</w> 14
acade mic</w> 14
phil us</w> 14
grandi flora</w> 14
lie uten 14
bub ble</w> 14
chron ic</w> 14
dow ny</w> 14
sent ence</w> 14
glan du 14
conserv ation</w> 14
enni al</w> 14
dynam ics</w> 14
birth day</w> 14
fund am 14
hydra u 14
rhag ic</w> 14
certi ficate</w> 14
cr uci 14
assem bly</w> 14
campan ula</w> 14
phra se</w> 14
fritill aria</w> 14
techno logy</w> 14
alve olar</w> 14
swal low</w> 14
ventri cular</w> 14
malign ant</w> 14
hibi tion</w> 14
rout ine</w> 14
aux ili 14
equi val 14
progressi ve</w> 14
movi e</w> 14
laby rin 14
n op 13
t ad 13
t ari 13
t fulness</w> 13
i si 13
i ver</w> 13
u li 13
u to 13
u ff 13
u ration</w> 13
u lati 13
m im 13
c i</w> 13
c is 13
c ia</w> 13
o y</w> 13
o on</w> 13
s .</w> 13
s ack</w> 13
s eness</w> 13
s mit 13
e um 13
e gre 13
e igh 13
e berry</w> 13
p is</w> 13
v om 13
v eller</w> 13
d iness</w> 13
d na</w> 13
h it</w> 13
b ram 13
g at 13
g ical</w> 13
y or 13
y ear 13
k is 13
k ho 13
k ling</w> 13
k iss</w> 13
- a- 13
z el</w> 13
j ub 13
in si 13
in oc 13
in su 13
in tra 13
in ian</w> 13
in ion</w> 13
in vent 13
in stal 13
er ec 13
er ed</w> 13
an - 13
an is 13
an ne 13
an ci 13
an xi 13
ti tan 13
ar in</w> 13
ar sen 13
ar dia</w> 13
ar row 13
ar enaria</w> 13
or der 13
al is 13
al lu 13
al gia</w> 13
al nus</w> 13
ro c 13
st abili 13
st art</w> 13
st ool</w> 13
on us</w> 13
at ar 13
at hy 13
ac ry 13
li ve</w> 13
ri x</w> 13
ch op 13
ch ase</w> 13
si d</w> 13
si ck</w> 13
si da</w> 13
le e</w> 13
le ast</w> 13
le ather 13
co ol 13
co lic</w> 13
co pper</w> 13
am p 13
am ic</w> 13
lo pe</w> 13
di i</w> 13
di on</w> 13
di es 13
gen s</w> 13
es sen 13
es ophag 13
ph er</w> 13
ph th 13
ph ora</w> 13
la g 13
la z 13
la un 13
la ke</w> 13
la ev 13
la phus</w> 13
ic e- 13
ur an 13
el and</w> 13
it ch 13
po ec 13
po ster</w> 13
as sia</w> 13
as pen</w> 13
de hy 13
de vi 13
de cor 13
om e 13
om orph 13
ul l 13
ul tra 13
se n</w> 13
se mic 13
ag ricul 13
us al</w> 13
to l 13
to y</w> 13
em ber</w> 13
em bro 13
bo la</w> 13
sp en 13
sp ac 13
sp la 13
sp ice</w> 13
sh aft</w> 13
ir ri 13
mo lo 13
ab a</w> 13
qu ic 13
qu et 13
qu estion</w> 13
per ch</w> 13
per nic 13
per ception</w> 13
um bre 13
con struc 13
oc to 13
he p 13
he ating</w> 13
he ade 13
pro m 13
pro pri 13
com e</w> 13
com for 13
com pass</w> 13
ent om 13
sc en 13
sc us</w> 13
me dal</w> 13
te as 13
pe dic 13
car y 13
car p</w> 13
do - 13
ran k</w> 13
ran a</w> 13
ran unculus</w> 13
be ing</w> 13
pi lo 13
pi sto 13
pi thecus</w> 13
no ise</w> 13
we b 13
bi d</w> 13
mon go 13
mon itor</w> 13
ta i</w> 13
ta king</w> 13
for d</w> 13
for est</w> 13
for mic 13
cor ru 13
cor tin 13
cor pus</w> 13
ly sis</w> 13
au gu 13
au ric 13
au lis</w> 13
bl on 13
tri s</w> 13
tri angle</w> 13
ex po 13
ex ist 13
ex pedi 13
ex tension</w> 13
cy n 13
cy prin 13
cal am 13
ili brium</w> 13
man gan 13
fo eti 13
wh or 13
tro glo 13
bu fo</w> 13
go at 13
go th 13
can is</w> 13
can nab 13
iz ing</w> 13
ser a</w> 13
ha w</w> 13
anth er 13
ari x</w> 13
plan t 13
dis si 13
dis charge</w> 13
col ub 13
pen ia</w> 13
pen cil</w> 13
cla im</w> 13
mu co 13
ten der 13
por ting</w> 13
ob e</w> 13
bre ach</w> 13
bre athing</w> 13
oph obia</w> 13
clo se 13
eu ph 13
inter pre 13
od le</w> 13
od acty 13
ca ff 13
cro s 13
cro w</w> 13
cro wn 13
pa in</w> 13
tr e</w> 13
pal li 13
pal eo 13
met ric</w> 13
hi story</w> 13
tor to 13
tor pe 13
mus k</w> 13
py c 13
py re 13
bra z 13
sho wer</w> 13
sw an</w> 13
sw iss</w> 13
war ning</w> 13
ren al</w> 13
fac t</w> 13
fac ility</w> 13
poly gon 13
cul tiv 13
chi lo 13
tran spor 13
mil kweed</w> 13
ban ded</w> 13
squ ar 13
sco py</w> 13
boo m</w> 13
mag ic</w> 13
pu p 13
cam pe 13
bur g</w> 13
cin c 13
pat ch</w> 13
tion ality</w> 13
az z</w> 13
bul b</w> 13
nor mal 13
ben d</w> 13
vo ting</w> 13
elli te</w> 13
des mo 13
gran ulo 13
jun ior</w> 13
omet ric</w> 13
tar get</w> 13
zo an</w> 13
stom ach</w> 13
let ter 13
pot amo 13
fun c 13
fra ud</w> 13
pon d</w> 13
chro me</w> 13
trans mit 13
trans fer</w> 13
tw el 13
coc cy 13
mel ano 13
less on</w> 13
hon or</w> 13
aph id</w> 13
sli de</w> 13
aut o</w> 13
fir m</w> 13
wi re 13
bran ch</w> 13
mem or 13
ation ist</w> 13
nec k 13
brac ket</w> 13
haem ato 13
arch y</w> 13
tle ment</w> 13
ment ary</w> 13
ced rus</w> 13
cab inet</w> 13
edi tor</w> 13
edi ble</w> 13
cut ting</w> 13
scri ption</w> 13
califor nic 13
sla ve</w> 13
gg le</w> 13
rela tive</w> 13
lum ber 13
star ting</w> 13
ze al 13
nav y</w> 13
pil lar</w> 13
sion er</w> 13
wit ness</w> 13
voc al</w> 13
rhe um 13
hyd range 13
dacty lo 13
tim ate</w> 13
person nel</w> 13
flam e</w> 13
eph emer 13
conver ter</w> 13
carol ina</w> 13
cell ulose</w> 13
mechan ical</w> 13
nom in 13
break ing</w> 13
cuc ur 13
phar yn 13
termin al</w> 13
orth op 13
agro stis</w> 13
open - 13
ever la 13
oly m 13
anom al 13
classi cal</w> 13
rib bon</w> 13
dir ty</w> 13
moder n</w> 13
colle ction</w> 13
collec tor</w> 13
magno li 13
repres entation</w> 13
phag a</w> 13
stroph y</w> 13
pod ocarpus</w> 13
popul us</w> 13
ortho do 13
labi al</w> 13
plu g</w> 13
catho lic</w> 13
differ ential</w> 13
kill er</w> 13
zin c</w> 13
nerv ous</w> 13
employ ment</w> 13
epig ast 13
was p</w> 13
accoun ting</w> 13
tham nus</w> 13
poss ession</w> 13
hyacin th</w> 13
anthro pus</w> 13
horiz on 13
croco di 13
heav y</w> 13
ballo on</w> 13
pholi ota</w> 13
acces sory</w> 13
cogni tive</w> 13
mack erel</w> 13
mathemati cal</w> 13
aspar agus</w> 13
accel erator</w> 13
arven sis</w> 13
cerv ical</w> 13
vacu um</w> 13
furn ace</w> 13
judi cial</w> 13
lyn x</w> 13
pregn ancy</w> 13
saus age</w> 13
staphy lo 13
stachy s</w> 13
yuc ca</w> 13
attor ney</w> 13
reti rement</w> 13
maho gan 13
lieuten ant</w> 13
hydrau lic</w> 13
auxili ary</w> 13
troglo dy 13
a in 12
a es 12
a ire</w> 12
a emia</w> 12
n o</w> 12
n ag 12
t s 12
t ach 12
t ang 12
i ra 12
i ence</w> 12
i anum</w> 12
r ul 12
m ae</w> 12
m it</w> 12
l us 12
c ec 12
c aceae</w> 12
c ata</w> 12
c ram 12
o be 12
s an</w> 12
s sy 12
s ary</w> 12
s mar 12
s mi 12
e h 12
e in</w> 12
e aceae</w> 12
e ver</w> 12
e olus</w> 12
f r 12
p au 12
p ath 12
p ast</w> 12
v ice</w> 12
v est</w> 12
v acc 12
d ur 12
d op 12
d ant</w> 12
d ler</w> 12
d ago</w> 12
w et 12
w ler</w> 12
h er</w> 12
h il 12
h id 12
b low</w> 12
b arium</w> 12
g ur 12
g arian</w> 12
y go 12
k ic 12
k ent 12
k age</w> 12
k ite</w> 12
z ig 12
j ag 12
j av 12
in gu 12
in for 12
in duc 12
in flam 12
in struction</w> 12
er as 12
er ig 12
an ap 12
an ni 12
ti t 12
ti sh 12
ti aceae</w> 12
ti te</w> 12
ti ous</w> 12
ti zation</w> 12
ar iz 12
ar gy 12
ar tist</w> 12
ar auc 12
or um</w> 12
or hynchus</w> 12
al th 12
al um</w> 12
al ex 12
ro bu 12
ro ugh 12
ro ugh</w> 12
st .</w> 12
st at</w> 12
on i</w> 12
ac on 12
ac idae</w> 12
re mo 12
re cur 12
re view</w> 12
li e</w> 12
li am 12
ch at</w> 12
le n</w> 12
le in</w> 12
le ge</w> 12
le ish 12
le onto 12
co d 12
co l</w> 12
co on</w> 12
co le 12
co gn 12
am ne 12
lo v 12
lo cal 12
lo stom 12
di vin 12
gen it 12
ra ft</w> 12
ra bility</w> 12
es ox</w> 12
ph in</w> 12
th om 12
th ia</w> 12
th elypteris</w> 12
la s</w> 12
il le</w> 12
ic aceae</w> 12
ic ity</w> 12
ur s</w> 12
ur i</w> 12
ur inary</w> 12
ur ban</w> 12
po p</w> 12
po x</w> 12
po lar</w> 12
po ll</w> 12
as y</w> 12
as ci 12
de si 12
de la 12
de sign 12
de termin 12
et ales</w> 12
om an 12
om um</w> 12
se e</w> 12
se y</w> 12
se man 12
se ed 12
ter es</w> 12
ter mes</w> 12
ag ri 12
to s</w> 12
to w 12
to sis</w> 12
to wn 12
to xico 12
sp in</w> 12
sp ur</w> 12
sp ora</w> 12
sh in 12
ap ar 12
ap pe 12
ap ple 12
ap plication</w> 12
mo us</w> 12
mo ul 12
ol er 12
ab s 12
ab er 12
ab ase</w> 12
ab use</w> 12
ad am 12
qu ail</w> 12
um - 12
he lo 12
he el</w> 12
pro mis 12
pro bosc 12
com par 12
com ed 12
com posi 12
com position</w> 12
oo k</w> 12
sc a 12
sc y 12
sc ur 12
sc ab 12
sc rub</w> 12
op inion</w> 12
me an 12
ati cus</w> 12
pe dal</w> 12
ace us</w> 12
ace tic</w> 12
car ti 12
car char 12
car pa</w> 12
car ya</w> 12
car dam 12
hy al 12
so ft- 12
par us</w> 12
par ia</w> 12
par adi 12
par lor</w> 12
gra ve 12
ver ben 12
ver onica</w> 12
pi g</w> 12
pi er</w> 12
pi per 12
vi e 12
vi de 12
sy ring 12
no sed</w> 12
bi us</w> 12
mon oc 12
cor e</w> 12
rac y</w> 12
tri a</w> 12
tri llium</w> 12
wor thiness</w> 12
ru g</w> 12
ce l</w> 12
ste w</w> 12
mar ket 12
ex ha 12
phy sis</w> 12
tre foil</w> 12
ili ac</w> 12
sa c</w> 12
fo ster 12
cu e</w> 12
ven ous</w> 12
gre y 12
bu oy</w> 12
gi i</w> 12
go wn</w> 12
can ary</w> 12
pl us</w> 12
ry ing</w> 12
bal m</w> 12
bal sam 12
min d</w> 12
anth a</w> 12
os phere</w> 12
sal mon 12
tra ding</w> 12
cre w</w> 12
cre ation</w> 12
cre pe</w> 12
cre sted</w> 12
sub marine</w> 12
ll ing</w> 12
col lin 12
col lar</w> 12
ach ing</w> 12
fe eding</w> 12
pen et 12
por cu 12
dic ation</w> 12
pri son 12
mal us</w> 12
ob serv 12
oph os 12
oph ilia</w> 12
oph ilus</w> 12
bar n</w> 12
hor set 12
hor ses 12
igh t- 12
clo set</w> 12
pan el</w> 12
pan cake</w> 12
ther ia</w> 12
ther mal</w> 12
ca s</w> 12
pa w</w> 12
pla gi 12
ster a</w> 12
met eor 12
gar bage</w> 12
cap er</w> 12
tur us</w> 12
py lor 12
ide n</w> 12
sti chum</w> 12
cat fish</w> 12
dy strophy</w> 12
io do 12
ron e</w> 12
ron ia</w> 12
elec tion</w> 12
lor i 12
ba sin</w> 12
the li 12
mer chant</w> 12
cent ri 12
chi lean</w> 12
mil k 12
sur geon</w> 12
sur gical</w> 12
lic al</w> 12
ed ge</w> 12
val u 12
val ley</w> 12
glo be</w> 12
pho tom 12
tan e 12
pap er 12
dri p</w> 12
bur g 12
bur ner</w> 12
sil ky</w> 12
gon i 12
pat rol</w> 12
hem ato 12
form er</w> 12
her ring</w> 12
sor t</w> 12
sor gh 12
len der</w> 12
fin ance</w> 12
ish er</w> 12
din osaur</w> 12
equ ation</w> 12
equ ilibrium</w> 12
elli p 12
des cen 12
des cri 12
sol dier</w> 12
pic ea</w> 12
pic ker 12
bat hy 12
jun e</w> 12
thro w</w> 12
fle x</w> 12
cri st 12
super family</w> 12
pit u 12
phyll aceae</w> 12
she pher 12
spo on 12
ker s</w> 12
euro pa 12
lac ri 12
flo under</w> 12
san c 12
leg is 12
leg ia</w> 12
electri city</w> 12
don tia</w> 12
out h</w> 12
ev idence</w> 12
cry stal 12
wri t</w> 12
sli me</w> 12
eff ec 12
bran chi 12
thor ac 12
def en 12
ket o 12
fil ter</w> 12
ade s</w> 12
scre w 12
yo ung</w> 12
doc trine</w> 12
assi stant</w> 12
shor t- 12
vari able</w> 12
oli go 12
sup ply</w> 12
scor pion</w> 12
wel sh</w> 12
je wel 12
tax is</w> 12
tac t</w> 12
zy g 12
stal l</w> 12
virgin ica</w> 12
sat ellite</w> 12
califor nica</w> 12
nucle us</w> 12
ido sis</w> 12
bic ycle</w> 12
wit ch</w> 12
rhy n 12
mut ual</w> 12
cast ing</w> 12
tox ic</w> 12
refle c 12
cand le 12
vas o 12
osau ridae</w> 12
osau ria</w> 12
gloss us</w> 12
vet er 12
encephal on</w> 12
crac ker</w> 12
hab it 12
ay an</w> 12
plac ement</w> 12
pne umo 12
gas oline</w> 12
inte stin 12
gener ation</w> 12
meas uring</w> 12
hair y</w> 12
bow ling</w> 12
mechan ism</w> 12
chon a</w> 12
buff er</w> 12
break fast</w> 12
artic le</w> 12
artic ulati 12
shoo ter</w> 12
uti lity</w> 12
alph a- 12
verte bral</w> 12
angu lar</w> 12
pear l</w> 12
commer ce</w> 12
oly sis</w> 12
pack ing</w> 12
tain ment</w> 12
preci pit 12
phas eolus</w> 12
trun k</w> 12
chama ec 12
chama ele 12
sclero sis</w> 12
fat ty</w> 12
stru thi 12
righ ts</w> 12
cyan ide</w> 12
diag no 12
won der</w> 12
pressi ve</w> 12
pyr rh 12
bast ard</w> 12
eleph ant</w> 12
identi fication</w> 12
omyco ta</w> 12
dat abase</w> 12
recor ding</w> 12
even ing</w> 12
anch or</w> 12
appar atus</w> 12
cardin al</w> 12
him an 12
bap tist</w> 12
adver ti 12
carbon ate</w> 12
pain ting</w> 12
saxifra ge</w> 12
absor ption</w> 12
fib re</w> 12
bomb yc 12
poten tial</w> 12
purpu rea</w> 12
foc al</w> 12
figh ter</w> 12
reproduc tive</w> 12
tren ch</w> 12
abdomin al</w> 12
cypri pedium</w> 12
treat ment</w> 12
schizoph renia</w> 12
holi day</w> 12
crotal us</w> 12
skir t</w> 12
swim ming</w> 12
character istic</w> 12
rhom bo 12
bore alis</w> 12
dou gla 12
bermu da</w> 12
gour d</w> 12
senec io</w> 12
vec tor</w> 12
enzy me</w> 12
cheno podium</w> 12
serrat us</w> 12
newsp aper</w> 12
cupress us</w> 12
asclepi as</w> 12
chthy s</w> 12
coty le 12
mosqu ito</w> 12
indirec t</w> 12
smit h</w> 12
dehy de</w> 12
umbre lla</w> 12
pisto l</w> 12
cucur bit 12
everla sting</w> 12
mahogan y</w> 12
horset ail</w> 12
articulati o</w> 12
a um 11
a ya</w> 11
a qui 11
n i</w> 11
n ish</w> 11
n aria</w> 11
n arc 11
t su 11
t alis</w> 11
i ber 11
i tive</w> 11
i anus</w> 11
u ity</w> 11
r ata</w> 11
m ed</w> 11
m is</w> 11
l ace 11
c ed</w> 11
c rin 11
c lut 11
o g 11
o lo 11
o th 11
o is</w> 11
o tic</w> 11
o sity</w> 11
s p</w> 11
s iness</w> 11
e ze</w> 11
e au</w> 11
f ine</w> 11
f ric 11
p uc 11
p ing 11
v apor 11
d dle</w> 11
w s</w> 11
w id 11
w ron 11
h ell</w> 11
h uck 11
h iza</w> 11
b ach 11
b y- 11
g ed</w> 11
g ho 11
g race</w> 11
y m</w> 11
y an 11
y an</w> 11
k h 11
k am 11
k worm</w> 11
- to- 11
x er 11
z en 11
z on 11
z ema</w> 11
j i</w> 11
j in 11
j an 11
j ar 11
j ab 11
j azz</w> 11
in i</w> 11
in cre 11
in vol 11
in emia</w> 11
in duction</w> 11
in stitution</w> 11
en for 11
en 's</w> 11
er gic</w> 11
er oot</w> 11
an no 11
an ast 11
an te</w> 11
an ut</w> 11
ti p 11
ti l</w> 11
ti er</w> 11
ti an</w> 11
ti tis</w> 11
ti ana</w> 11
ti sation</w> 11
ti lla</w> 11
ar ist</w> 11
ar ach 11
ar iness</w> 11
ar che 11
ar row</w> 11
ar yn 11
or ation</w> 11
or io 11
or pha</w> 11
al ly</w> 11
ro ach</w> 11
ro tary</w> 11
st ran 11
st iness</w> 11
on 's</w> 11
on th</w> 11
at i</w> 11
at eral</w> 11
re in</w> 11
re fin 11
li gu 11
li en</w> 11
ch en 11
ch au 11
ch ance</w> 11
ch ium</w> 11
ch ella</w> 11
si er</w> 11
si de 11
si ber 11
si tis</w> 11
si mul 11
si lla</w> 11
si cum</w> 11
le ver</w> 11
le spe 11
le ek</w> 11
le ading</w> 11
co t 11
co m</w> 11
co con 11
co py 11
am b 11
am i</w> 11
am an</w> 11
am orph 11
lo be 11
lo ur</w> 11
di p</w> 11
di tion</w> 11
di pter 11
di stin 11
di stance</w> 11
di oxide</w> 11
ra e</w> 11
ra g</w> 11
ra sp 11
es hip</w> 11
ph ro 11
ph or</w> 11
ph ren 11
ph asi 11
ph ilia</w> 11
th un 11
la g</w> 11
la di 11
la go 11
la wn</w> 11
is sus</w> 11
un di 11
ic an</w> 11
el - 11
it ys</w> 11
po s</w> 11
po lar 11
po sal</w> 11
po lemon 11
de ath 11
de af 11
et ta</w> 11
ul arity</w> 11
se ab 11
se ment</w> 11
se dge</w> 11
to ll</w> 11
to tal</w> 11
to uch 11
bo at 11
bo li 11
sp ar</w> 11
sh ap 11
mo de</w> 11
mo du 11
ol ens</w> 11
ab lish 11
ec cle 11
ec zema</w> 11
ad ri 11
ad he 11
per is 11
per sian</w> 11
um bell 11
fam ili 11
con duc 11
con dy 11
con cent 11
con tem 11
con feder 11
con ference</w> 11
oc or 11
oc ele</w> 11
oc cup 11
oc cipit 11
he im 11
he ater</w> 11
he ather</w> 11
pro pan 11
lan th 11
ent rance</w> 11
ig ni 11
sc is 11
sc ul 11
op ist 11
ati n</w> 11
ati cum</w> 11
te ar 11
te en</w> 11
te stud 11
pe d 11
pe lecan 11
ace an</w> 11
car bo 11
car pen 11
car yo 11
ho g 11
so y 11
do x 11
par as 11
be ef 11
pi pi 11
pi thec 11
vi re 11
no de</w> 11
ma k 11
ma ster 11
we ek</w> 11
gu y</w> 11
gu ide</w> 11
gu ine 11
ke eping</w> 11
bi bli 11
mon ger</w> 11
for mal 11
cor i 11
cor pus 11
im e</w> 11
tic k 11
au gh 11
ve a</w> 11
ve al</w> 11
ve ins</w> 11
wor d 11
and re 11
mar su 11
mar ty 11
mar gin</w> 11
su d 11
ex pan 11
ex pression</w> 11
fi x</w> 11
cy st 11
cy ri 11
cal ab 11
cal culus</w> 11
cal amus</w> 11
sa il 11
sa vo 11
man u 11
man ce</w> 11
man ual</w> 11
fo et 11
fo ster</w> 11
fo ssi 11
cu st 11
wh er 11
wh ir 11
bu ster</w> 11
bu dd 11
gi e</w> 11
gi b 11
gi ft</w> 11
go d 11
go bi 11
can thus</w> 11
can non</w> 11
ser o 11
ser pent 11
der er</w> 11
bal let</w> 11
min dedness</w> 11
av ing</w> 11
lin k</w> 11
tra ge 11
tra sh</w> 11
tra gus</w> 11
ll er</w> 11
dis co 11
col on</w> 11
fe ather 11
pen is</w> 11
mu r</w> 11
por e</w> 11
por ter</w> 11
pri se</w> 11
pri vet</w> 11
mal e 11
str us</w> 11
str eng 11
bro ad</w> 11
bro ker</w> 11
bre w</w> 11
bre ech 11
oph ore</w> 11
oph ila</w> 11
bar n 11
mat eri 11
eu ri 11
eu pat 11
eu glen 11
od a</w> 11
cro p</w> 11
pla ster</w> 11
pla smo 11
ty ph 11
cho ke</w> 11
tin us</w> 11
ric ket 11
gar ment</w> 11
cap su 11
py g 11
sk unk</w> 11
cat us</w> 11
cat eg 11
ep id 11
stri fe</w> 11
sw oman</w> 11
war rant</w> 11
ren e</w> 11
sen ger</w> 11
sen ior</w> 11
ba y 11
the o 11
the ast</w> 11
char adri 11
tom us</w> 11
rh am 11
sn ail</w> 11
ox alis</w> 11
chi ro 11
mil lion</w> 11
che e</w> 11
men tha</w> 11
af ro 11
squ ad</w> 11
squ ee 11
cur v 11
wil d 11
blo cker</w> 11
jo in 11
jo ur 11
sco lo 11
wa x 11
rat ing</w> 11
thy san 11
stra p</w> 11
tion ship</w> 11
yc in</w> 11
hom o</w> 11
sto ve</w> 11
sor ship</w> 11
gan s</w> 11
gy rus</w> 11
gam y</w> 11
proc ta</w> 11
radi al</w> 11
syn chron 11
pul sion</w> 11
tele graph</w> 11
cle f</w> 11
cir sium</w> 11
micro scope</w> 11
fle a</w> 11
na i 11
ear ly</w> 11
ga vi 11
tiv ism</w> 11
sar coma</w> 11
ker at 11
flo od</w> 11
lep is</w> 11
comp act</w> 11
bla sto 11
phor ic</w> 11
trans fer 11
tw o</w> 11
fri end 11
ori ented</w> 11
tet rac 11
pra yer</w> 11
spe aker</w> 11
sau r</w> 11
cham omile</w> 11
pub lish 11
part ner</w> 11
arc tic</w> 11
bran chia</w> 11
goo d- 11
acc ess</w> 11
back ground</w> 11
spin ach</w> 11
fil ing</w> 11
nu isance</w> 11
brac e</w> 11
ela e 11
bet a- 11
bio tic</w> 11
ment s</w> 11
vari eg 11
hun t</w> 11
hun ter</w> 11
spon dy 11
hel met</w> 11
wom an 11
bell flower</w> 11
scor e</w> 11
scor pa 11
press ant</w> 11
post - 11
ocy tic</w> 11
blu e- 11
chri st</w> 11
lun ar</w> 11
bil led</w> 11
's- foot</w> 11
nig er</w> 11
sim um</w> 11
han g</w> 11
loo m</w> 11
loo se 11
ze bra</w> 11
hear tedness</w> 11
nav ig 11
pil low</w> 11
sion ary</w> 11
arm ill 11
rhy me</w> 11
quar k</w> 11
wood sia</w> 11
colum n</w> 11
colum bi 11
analy st</w> 11
atri x</w> 11
acet um</w> 11
prim rose</w> 11
foot ed</w> 11
fem or 11
soli dago</w> 11
cross ing</w> 11
hex ag 11
nut ri 11
opo da</w> 11
rag ma</w> 11
phon y</w> 11
crac k</w> 11
fas cic 11
contin ental</w> 11
lingu istics</w> 11
pend ulum</w> 11
euc li 11
meas ure 11
color ed</w> 11
imper ial</w> 11
whis ky</w> 11
liter ary</w> 11
petro l</w> 11
wash ing</w> 11
rock y</w> 11
shri ke</w> 11
ange lica</w> 11
sulf ate</w> 11
sulf ur</w> 11
grav ity</w> 11
whi p</w> 11
oti d</w> 11
scom ber 11
rain bow</w> 11
anthropo logy</w> 11
tricho loma</w> 11
exper t</w> 11
caes alpinia</w> 11
thin king</w> 11
plas ma</w> 11
author ity</w> 11
odor ata</w> 11
aur anti 11
fut ure</w> 11
revol u 11
phlo x</w> 11
bitter sweet</w> 11
philosoph y</w> 11
rang ement</w> 11
pleas ure</w> 11
juni perus</w> 11
wing ed</w> 11
chy tri 11
labor atory</w> 11
paint ed</w> 11
capri mul 11
john 's</w> 11
abor tion</w> 11
breast ed</w> 11
centau rea</w> 11
hemor rhagic</w> 11
servic es</w> 11
stimul us</w> 11
sylv atica</w> 11
stuff ed</w> 11
amyg dal 11
ede ma</w> 11
beha vi 11
balli stic</w> 11
represent ative</w> 11
inher it 11
osar coma</w> 11
strat eg 11
sature ja</w> 11
cigar ette</w> 11
repti le</w> 11
mira bilis</w> 11
invent ory</w> 11
anxi ety</w> 11
heade d</w> 11
cortin arius</w> 11
zeal and</w> 11
hydrange a</w> 11
erig eron</w> 11
oler acea</w> 11
comed y</w> 11
sorgh um</w> 11
intestin al</w> 11
a o 10
a h 10
a us 10
n ical</w> 10
t sia</w> 10
t ack 10
t aria</w> 10
t ale</w> 10
t ler</w> 10
t lessness</w> 10
i folium</w> 10
u v 10
u x</w> 10
u ron 10
r h</w> 10
r ence</w> 10
l ate</w> 10
c - 10
c em 10
c im 10
c ist</w> 10
c king</w> 10
c ren 10
c ade</w> 10
o e</w> 10
o to 10
o at</w> 10
o gen</w> 10
s se</w> 10
s ma</w> 10
s eller</w> 10
e ba</w> 10
f ing</w> 10
f ati 10
f ace 10
f use</w> 10
f ud 10
f rat 10
p on</w> 10
p ation</w> 10
p tu 10
p igh 10
p ren 10
v um</w> 10
v ati 10
d g 10
d dy</w> 10
d ating</w> 10
w ig 10
w and 10
h ing</w> 10
h as 10
b ath 10
g ist</w> 10
g ula</w> 10
y er 10
y ness</w> 10
y ach 10
y am</w> 10
k ri 10
k le 10
k il 10
k 's</w> 10
- on 10
- the- 10
x eno 10
z amia</w> 10
j on 10
j ay</w> 10
in y</w> 10
in is</w> 10
in ch</w> 10
in age</w> 10
in ism</w> 10
in ales</w> 10
in hal 10
in sul 10
in verse</w> 10
en li 10
en vi 10
an y</w> 10
an al</w> 10
an aceae</w> 10
an th</w> 10
an tin 10
an non 10
ti d</w> 10
ti i</w> 10
ti ales</w> 10
ar e 10
ar ma 10
ar ism</w> 10
ar rh 10
ar da</w> 10
ar gyro 10
ar thritis</w> 10
ar rangement</w> 10
or ing</w> 10
al ge 10
al lus</w> 10
ro om 10
ro tun 10
ro pia</w> 10
st us</w> 10
st um</w> 10
st he 10
st ling</w> 10
on ii</w> 10
at mo 10
at ho 10
ac i 10
ac com 10
ac iousness</w> 10
ac ule 10
ac umin 10
re t</w> 10
re n</w> 10
re ck 10
re spec 10
re port</w> 10
li m</w> 10
li fe 10
li chen</w> 10
ri o</w> 10
ri der</w> 10
ch ig 10
ch man</w> 10
ch ori 10
si as 10
si ster</w> 10
le v 10
le x</w> 10
le on 10
le um</w> 10
le op 10
co in</w> 10
am en 10
am an 10
am mo 10
am bi 10
am ni 10
am en</w> 10
am bul 10
am by 10
lo bo 10
lo in</w> 10
lo ading</w> 10
lo af</w> 10
di folia</w> 10
di anthus</w> 10
gen ia</w> 10
ra j 10
ra tic</w> 10
ra ising</w> 10
es man</w> 10
es cape</w> 10
ph e</w> 10
ph eno 10
th ar 10
th rum</w> 10
th rust</w> 10
la b</w> 10
la gus</w> 10
il lidae</w> 10
un ic 10
un gu 10
ic le</w> 10
ic ism</w> 10
el an 10
el lia</w> 10
it ri 10
po se</w> 10
po gon</w> 10
de er 10
de an</w> 10
de can 10
de uter 10
ul on</w> 10
ul aceae</w> 10
ul atum</w> 10
se cu 10
se gre 10
se a- 10
se vent 10
ter e 10
ter - 10
ter ran 10
ag er 10
ag as 10
ag glut 10
to ut</w> 10
to tal 10
to ler 10
to cybe</w> 10
em aker</w> 10
sh a 10
ir d</w> 10
mo od</w> 10
mo use 10
ab ra 10
ad ult</w> 10
qu ick</w> 10
per ce 10
per icar 10
con ju 10
con go</w> 10
con stric 10
con tact</w> 10
oc a</w> 10
pro n 10
pro li 10
pro pen 10
pro pel 10
pro sop 10
com b</w> 10
com ing</w> 10
com pen 10
com bus 10
ub le</w> 10
ne on 10
ent h</w> 10
ent er</w> 10
sc h</w> 10
sc ape</w> 10
op er</w> 10
op idae</w> 10
me l</w> 10
me ga 10
te t</w> 10
te lo 10
pe anut</w> 10
ho b 10
ho t- 10
do t</w> 10
par ent</w> 10
par king</w> 10
par lour</w> 10
be at</w> 10
be et</w> 10
pi pe 10
vi tis</w> 10
vi ral</w> 10
vi lege</w> 10
no se 10
no tho 10
ma il 10
ma iden</w> 10
we e</w> 10
we t</w> 10
we ather 10
ff in</w> 10
gu it 10
bi ke</w> 10
ta y 10
ta p</w> 10
ta ste</w> 10
for ces</w> 10
cor al 10
ly ch 10
ly ca 10
au stro 10
tri ple</w> 10
ve stris</w> 10
ing a</w> 10
ru e</w> 10
mar as 10
su icide</w> 10
ex pon 10
ell aceae</w> 10
fi ve</w> 10
fi bri 10
log ale</w> 10
ge l</w> 10
ge or 10
ge um</w> 10
cy m 10
cy gn 10
cy stic</w> 10
cy cad 10
phy ton</w> 10
phy ceae</w> 10
ili an</w> 10
sa uc 10
sa ff 10
man - 10
man nia</w> 10
ven us 10
ven der</w> 10
tro n</w> 10
tro ut</w> 10
bu n</w> 10
gi ving</w> 10
go u 10
go er</w> 10
go pher</w> 10
go ssy 10
pl ace 10
ak ed</w> 10
ser um</w> 10
ser ial</w> 10
der a</w> 10
der 's</w> 10
der mati 10
anth e</w> 10
dro om</w> 10
lin a</w> 10
ele gans</w> 10
ni aceae</w> 10
tra y</w> 10
plan et</w> 10
plan ning</w> 10
col li 10
ach i 10
ach er</w> 10
ach ro 10
fe n</w> 10
fe ed 10
pen s</w> 10
pen ny 10
my tho 10
por tra 10
pri me</w> 10
pri sm</w> 10
pri vilege</w> 10
mal t 10
mal pigh 10
cer a</w> 10
cer as 10
bro ther</w> 10
bre w 10
bar ga 10
bar ley</w> 10
mat aceae</w> 10
inter val</w> 10
od y</w> 10
od en 10
ca ve</w> 10
pa s</w> 10
ty ro 10
ty pe 10
cho p</w> 10
ple t</w> 10
ple - 10
ster y</w> 10
ster cu 10
tr uth</w> 10
tin ia</w> 10
pin e 10
ric s</w> 10
met re</w> 10
cap sicum</w> 10
tur dus</w> 10
lu pine</w> 10
sk il 10
ide us</w> 10
cat er 10
cat al 10
bir d's</w> 10
bra in 10
bra tion</w> 10
ep tor</w> 10
sho e 10
bri ck</w> 10
bri stle 10
stri an</w> 10
den ti 10
sen ti 10
gal l</w> 10
gal a</w> 10
ger a</w> 10
the or 10
mor al</w> 10
mor pho 10
mor pha</w> 10
ud a</w> 10
tom ys</w> 10
sn ak 10
ox ylon</w> 10
ck et 10
poly po 10
tran sp 10
mac ad 10
ban g</w> 10
lic ence</w> 10
af rican 10
but y 10
val uation</w> 10
blo om 10
sco ut</w> 10
tho use</w> 10
fla x</w> 10
boo ster</w> 10
mag net 10
ner ia</w> 10
pu den 10
da ir 10
tan acetum</w> 10
pap aver</w> 10
dri ving</w> 10
stra tive</w> 10
gin ea</w> 10
cin chona</w> 10
tal inum</w> 10
len g 10
bon es</w> 10
bon net</w> 10
lea ve</w> 10
gam ma</w> 10
prin ce</w> 10
prin ce 10
ssi ma</w> 10
est ablish 10
din ar</w> 10
sol v 10
syn ap 10
lat ry</w> 10
pas sive</w> 10
cen ti 10
cen ter 10
jun gle</w> 10
micro wave</w> 10
na issance</w> 10
swe at</w> 10
swe dish</w> 10
ear s</w> 10
lar ch</w> 10
int ment</w> 10
cephal o 10
chin ensis</w> 10
oper ations</w> 10
fun eral</w> 10
lac er 10
flo ating</w> 10
bom bing</w> 10
pres by 10
pon y</w> 10
vis e</w> 10
vul us</w> 10
tw in</w> 10
coc co 10
sul phate</w> 10
fri end</w> 10
don tidae</w> 10
mit ra</w> 10
smo ke</w> 10
cry p 10
wri ght</w> 10
ip es</w> 10
fir ing</w> 10
ax io 10
new ton's</w> 10
sper mat 10
nit rate</w> 10
spin y</w> 10
ophy ll</w> 10
ophy tina</w> 10
epi demic</w> 10
nat ure</w> 10
by te</w> 10
chor tus</w> 10
vin yl</w> 10
sam pling</w> 10
psi da</w> 10
bio sis</w> 10
spar k</w> 10
alo gue</w> 10
nar co 10
nar is</w> 10
nar row</w> 10
vent ure</w> 10
assi gn 10
vari ola</w> 10
chic kweed</w> 10
ves per 10
sac red</w> 10
spi ration</w> 10
lem ming</w> 10
lim it</w> 10
sym plo 10
flor us</w> 10
post al</w> 10
odon to 10
wel fare</w> 10
sty lo 10
tac hy 10
reli ef</w> 10
dol phin</w> 10
ny m 10
dio ica</w> 10
dio scor 10
syl vi 10
iv ory</w> 10
high way</w> 10
gg ing</w> 10
rela tionship</w> 10
kn ight</w> 10
abo ut</w> 10
fru it 10
get on</w> 10
thec a</w> 10
aden ia</w> 10
aden dron</w> 10
cere br 10
red wood</w> 10
arm ed</w> 10
mini ster</w> 10
quar tz</w> 10
sap ro 10
aqu atica</w> 10
cav al 10
stoc king</w> 10
liqu or</w> 10
sem per 10
medi ate</w> 10
medi terran 10
atri um</w> 10
cand le</w> 10
big - 10
tech nical</w> 10
basi di 10
opo gon</w> 10
yellow wood</w> 10
religi on</w> 10
chel ys</w> 10
mad agas 10
oste o 10
ante ater</w> 10
ov is</w> 10
sag e 10
mechan ics</w> 10
rhin oceros</w> 10
amar anthus</w> 10
perio dic</w> 10
blan ket</w> 10
fix ed</w> 10
verte bra</w> 10
indic a</w> 10
indic ator</w> 10
cyc lic</w> 10
officin ale</w> 10
grandi s</w> 10
nitro gen</w> 10
gig ante 10
key e</w> 10
trop ism</w> 10
bli ster</w> 10
radio active</w> 10
aeg y 10
sut ure</w> 10
sni pe</w> 10
ange l</w> 10
mir ror</w> 10
ces sion</w> 10
vig na</w> 10
diag ram</w> 10
mix ture</w> 10
clean ing</w> 10
ix odes</w> 10
poll ution</w> 10
terror ist</w> 10
identi ty</w> 10
program ming</w> 10
hap lo 10
steno sis</w> 10
troph ic</w> 10
drin king</w> 10
bad ger</w> 10
hepati tis</w> 10
snap per</w> 10
gyro mitra</w> 10
ozo a</w> 10
rati o</w> 10
opla sty</w> 10
harmon ic</w> 10
chromo some</w> 10
saxifra ga</w> 10
bam boo</w> 10
juni per</w> 10
goose berry</w> 10
glu co 10
alg ae</w> 10
mou th 10
weap on</w> 10
calo chortus</w> 10
gnath us</w> 10
pyth on</w> 10
pector al</w> 10
lepi ota</w> 10
boar ding</w> 10
turni p</w> 10
eryth rina</w> 10
tooth ed</w> 10
edu lis</w> 10
kor ean</w> 10
recon naissance</w> 10
leaf - 10
loco motive</w> 10
light ning</w> 10
lear ning</w> 10
popu lation</w> 10
deb t</w> 10
detec tive</w> 10
paralle l</w> 10
cylin der</w> 10
aristo lo 10
equis etum</w> 10
fragran t</w> 10
coccin ea</w> 10
moll us 10
tinc toria</w> 10
phle bo 10
unci ation</w> 10
comyc etes</w> 10
worm wood</w> 10
athle tic</w> 10
mort gage</w> 10
benz ene</w> 10
hamam eli 10
skelet on</w> 10
contr ace 10
scrat ch</w> 10
beggar - 10
elev ator</w> 10
hydrox ide</w> 10
passi flora</w> 10
ory z 10
acce pt 10
reson ance</w> 10
juven ile</w> 10
thresh old</w> 10
allu vi 10
expo sure</w> 10
transpor tation</w> 10
orthodo x</w> 10
horizon tal</w> 10
troglody tes</w> 10
vacc ine</w> 10
syring a</w> 10
porcu pine</w> 10
ophos phate</w> 10
cucurbit a</w> 10
tsu ga</w> 10
enfor cement</w> 10
siber ian</w> 10
cocon ut</w> 10
rasp berry</w> 10
opist ho 10
manu fac 10
eupat orium</w> 10
loose strife</w> 10
cygn us</w> 10
dermati tis</w> 10
mediterran ean</w> 10
a urus</w> 9
n an 9
n im 9
n ist</w> 9
n az 9
t ae</w> 9
t ut 9
t ack</w> 9
t ative</w> 9
i dium</w> 9
i dism</w> 9
u - 9
u er</w> 9
u ary</w> 9
u ality</w> 9
u ousness</w> 9
r rh 9
m in</w> 9
m ness</w> 9
l s</w> 9
l on</w> 9
l ent 9
c id</w> 9
c rus 9
c rum 9
c nem 9
o k</w> 9
o an</w> 9
o de</w> 9
o stom 9
s ack 9
s ash</w> 9
s lender</w> 9
e at 9
e id</w> 9
e log 9
e tia</w> 9
e lium</w> 9
e opsis</w> 9
f ice</w> 9
f ur</w> 9
f ida</w> 9
f ying</w> 9
f rut 9
p sal 9
p ple</w> 9
p elli 9
p sy</w> 9
p soph 9
p kin</w> 9
v - 9
v ah</w> 9
' clock</w> 9
d ing 9
d der 9
d ang 9
d ra</w> 9
d ina</w> 9
d ump</w> 9
w er 9
w ho 9
w ill 9
b ic</w> 9
b iness</w> 9
b rum</w> 9
b athing</w> 9
g iness</w> 9
g ren 9
g ill</w> 9
y i 9
y i</w> 9
y outh</w> 9
k es</w> 9
k aff 9
- worship</w> 9
x x 9
z y</w> 9
z ine</w> 9
z ea</w> 9
j ob 9
j anus</w> 9
1 8 9
1 9 9
in con 9
in ity</w> 9
in ization</w> 9
in isation</w> 9
in spec 9
in struc 9
in clin 9
in vesti 9
in put</w> 9
en s 9
en us</w> 9
en ary</w> 9
er o</w> 9
er us</w> 9
er em 9
er ian</w> 9
er ica</w> 9
an ac 9
an ce 9
an ist</w> 9
an go 9
an cho 9
an ise</w> 9
an esthetic</w> 9
ti er 9
ti bi 9
ti sia</w> 9
ti lia</w> 9
ti folia</w> 9
ti bility</w> 9
ti sus</w> 9
ti dal</w> 9
ar b</w> 9
ar di 9
ar is 9
ar ina</w> 9
ar ization</w> 9
ar isation</w> 9
or o 9
or che 9
or rho 9
or hyn 9
or bital</w> 9
al bu 9
al em</w> 9
ro tor</w> 9
st ine</w> 9
st anti 9
st ation 9
on is</w> 9
at he 9
at ax 9
at traction</w> 9
ac er 9
ac on</w> 9
ac cipit 9
re p 9
re h 9
re se 9
re sc 9
re fri 9
re qui 9
re ader</w> 9
re stric 9
re source</w> 9
re pens</w> 9
ri dge</w> 9
ch ari 9
si ana</w> 9
si fication</w> 9
si tter</w> 9
le ad 9
co er 9
co um 9
co lap 9
co ordinate</w> 9
co chle 9
am ing</w> 9
lo usness</w> 9
lo ft</w> 9
lo ve- 9
di ary</w> 9
di aph 9
di vine</w> 9
ra st 9
ra ge 9
ra zo 9
ra sian</w> 9
ra pid</w> 9
es cal 9
ph ry 9
ph ium</w> 9
ph eas 9
th ra 9
la ur 9
la ss</w> 9
la ea</w> 9
la und 9
la ying</w> 9
la bour</w> 9
ic e 9
ic ulata</w> 9
it us</w> 9
it arian</w> 9
it ude</w> 9
po on</w> 9
po gon 9
po ssi 9
de e</w> 9
de co 9
de ed</w> 9
de cre 9
de mi 9
de za</w> 9
de preci 9
de ception</w> 9
et er 9
et re</w> 9
et ail</w> 9
om in 9
om ethane</w> 9
se d 9
se - 9
se is 9
se ven 9
se quo 9
ag ave</w> 9
us - 9
us alem</w> 9
to on</w> 9
to ad 9
em ber 9
bo c 9
bo und 9
bo ston</w> 9
sp at 9
sp ri 9
sp ra 9
sp ear 9
sp ray</w> 9
sp lit 9
sh rub</w> 9
mo us 9
mo sa 9
mo del</w> 9
ol aria</w> 9
ol d- 9
ol factory</w> 9
ec k</w> 9
ad ul 9
ad mi 9
ad eno 9
qu es 9
qu in</w> 9
qu ality</w> 9
qu antum</w> 9
ut a</w> 9
per nel</w> 9
per ono 9
con cre 9
con junction</w> 9
con stitu 9
con genital</w> 9
oc ta 9
he pat 9
he ap</w> 9
pro v 9
pro py 9
oo m</w> 9
ne pet 9
ent ness</w> 9
sc ru 9
op portun 9
me g</w> 9
me da</w> 9
te uc 9
pe ac 9
car n 9
car d 9
car ri 9
car am 9
car ni 9
hy em 9
ho sti 9
so und 9
par a</w> 9
par ag 9
par vi 9
par tridge</w> 9
par liam 9
gra ft</w> 9
be ad</w> 9
be ater</w> 9
ver t</w> 9
pi an</w> 9
pi ke</w> 9
vi ro 9
vi per 9
sy ner 9
sy rian</w> 9
sy novi 9
no tor 9
ma in 9
we eping</w> 9
we alth</w> 9
gu ide 9
gu ava</w> 9
gu idance</w> 9
ke - 9
ke a</w> 9
bi li 9
bi color</w> 9
mon ey 9
mon tia</w> 9
mon arda</w> 9
for k</w> 9
for e</w> 9
for ec 9
cor ner</w> 9
cor nus</w> 9
cor nut 9
im plant</w> 9
im eter</w> 9
ly ing</w> 9
ly tic</w> 9
tic e 9
rac em 9
bl enni 9
tri bu 9
tri gon 9
tri color</w> 9
tri folium</w> 9
tri ticum</w> 9
wor ld 9
ing ia</w> 9
ce la 9
ste p 9
ste ering</w> 9
ste gia</w> 9
mar e</w> 9
mar row</w> 9
ex ten 9
ex am</w> 9
ex cel 9
ge le 9
ge an</w> 9
cy st</w> 9
cy ano 9
phy salis</w> 9
cal ori 9
ber g</w> 9
ber 's</w> 9
ber ber 9
man der</w> 9
fo ssa</w> 9
cu losis</w> 9
fl ute</w> 9
ci ti 9
ci ch 9
ven er 9
wh istle</w> 9
tro t</w> 9
bu rial</w> 9
gi bility</w> 9
pl er</w> 9
pl ine</w> 9
ak i</w> 9
ser ver</w> 9
min ing</w> 9
min ut 9
ath us</w> 9
ath ering</w> 9
ele ss</w> 9
tra v 9
tra in 9
fe ature</w> 9
cla w</w> 9
mu ja 9
dic k 9
dic ty 9
pri de</w> 9
pri son</w> 9
mal v 9
cer y</w> 9
ob last</w> 9
ob lastic</w> 9
str atum</w> 9
gro ve</w> 9
bro m 9
bre eding</w> 9
oph rys</w> 9
hor ten 9
mat ure</w> 9
mat ory</w> 9
clo se</w> 9
pan e</w> 9
od us</w> 9
ca eru 9
pa ir 9
pla in 9
cho ice</w> 9
ple ment</w> 9
ster ed</w> 9
ster ol</w> 9
shi pping</w> 9
tin ea</w> 9
ric le</w> 9
mi stle 9
du ra 9
tor re 9
tor tri 9
cap ro 9
cap ra</w> 9
cap illary</w> 9
tur er</w> 9
tur bine</w> 9
coun ty</w> 9
lu gg 9
py ron</w> 9
ang usti 9
ang lo- 9
cat ch</w> 9
cat ech 9
anti body</w> 9
io sis</w> 9
phal ar 9
bri ttle</w> 9
stri ata</w> 9
und i</w> 9
lor hiza</w> 9
ba i 9
ger m</w> 9
the ad</w> 9
rh ino 9
ox al 9
ox ylum</w> 9
poly stichum</w> 9
cul aria</w> 9
chi ma 9
tran sport</w> 9
win kle</w> 9
che li 9
men zi 9
lic an</w> 9
eg a</w> 9
eg ar</w> 9
squ at 9
hal luc 9
val eri 9
cur ren 9
pho id</w> 9
pho enic 9
jo urn 9
sco ly 9
fla sk</w> 9
boo t 9
boo th</w> 9
mag azine</w> 9
ner 's</w> 9
off - 9
fre sh</w> 9
da ph 9
da ys</w> 9
cha en 9
tan gent</w> 9
cam phor</w> 9
bur ger</w> 9
cra b 9
cra sh</w> 9
stra in</w> 9
stra int</w> 9
sil ene</w> 9
pat ho 9
hem at 9
tion ing</w> 9
her on</w> 9
her edi 9
trac h 9
serv ant</w> 9
tal ity</w> 9
fu ch 9
vir g 9
bas al</w> 9
bul let</w> 9
nor mal</w> 9
pter oc 9
pet er</w> 9
stre ptom 9
vo wel</w> 9
graph ical</w> 9
gla ss 9
soc ket</w> 9
mul berry</w> 9
mul lein</w> 9
des ser 9
pic k 9
pur chase</w> 9
fal con 9
spec t 9
ist 's</w> 9
pp a</w> 9
bat es</w> 9
bat tle 9
indi vid 9
cle ar 9
cen sorship</w> 9
jun k</w> 9
opter us</w> 9
ear ed</w> 9
zo on</w> 9
int el 9
dom e</w> 9
vol t</w> 9
uck y</w> 9
tiv al</w> 9
poli sh</w> 9
sar rac 9
rub ra</w> 9
electro static</w> 9
cli ff</w> 9
cli tocybe</w> 9
flo at</w> 9
ocar bon</w> 9
pon der 9
chro mat 9
san guin 9
eth mo 9
vul ture</w> 9
mach in 9
mach ia</w> 9
som al</w> 9
ori entalis</w> 9
ure th 9
pub escens</w> 9
smo king</w> 9
air plane</w> 9
fir st- 9
wi steria</w> 9
bran chio 9
clu ster</w> 9
struc tural</w> 9
inf rar 9
set te</w> 9
set ting</w> 9
set tlement</w> 9
liz er</w> 9
mati sm</w> 9
mati cal</w> 9
sper ma</w> 9
lut ea</w> 9
ae us</w> 9
ae py 9
mes enter 9
sle eve</w> 9
back ed</w> 9
nit ure</w> 9
cit ellus</w> 9
tun a</w> 9
fro g 9
fro st</w> 9
nat ur 9
by pass</w> 9
vin egar</w> 9
dam ages</w> 9
jap an</w> 9
ela stic</w> 9
sam buc 9
yo te</w> 9
bel gian</w> 9
hoo ded</w> 9
shor e</w> 9
spi ral</w> 9
sand piper</w> 9
hel min 9
cop al</w> 9
lim no 9
physi ological</w> 9
scor pion 9
-o ut</w> 9
thre ad</w> 9
mam mu 9
van illa</w> 9
odon ta</w> 9
dig it</w> 9
ocy an 9
del to 9
del ta</w> 9
enter prise</w> 9
psycho logical</w> 9
stal k</w> 9
scri p 9
direc tion</w> 9
phen yl 9
ado w 9
syl van 9
syl vestris</w> 9
gul l</w> 9
oce an</w> 9
rela tions</w> 9
kn uck 9
inde fin 9
inde pend 9
pow der 9
photo graphic</w> 9
geo logical</w> 9
ligh ting</w> 9
heli anthus</w> 9
stu ff</w> 9
cast anea</w> 9
ropo gon</w> 9
ind us</w> 9
sig ni 9
spiri tual</w> 9
cub an</w> 9
fur niture</w> 9
atri o 9
pyro la</w> 9
aer ial</w> 9
ugh ing</w> 9
neg lec 9
canad ense</w> 9
tetra gon 9
hex a 9
must ela</w> 9
calli tris</w> 9
cad mium</w> 9
partic ip 9
tempor ary</w> 9
mur der</w> 9
fas hion</w> 9
pseu de 9
past e</w> 9
plac entation</w> 9
frac tion</w> 9
sab bati 9
rab bit 9
proces sor</w> 9
plum e</w> 9
communic ations</w> 9
ante lope</w> 9
regi ster</w> 9
lyco podium</w> 9
rhiz a</w> 9
ordin ation</w> 9
max illary</w> 9
buck thorn</w> 9
speci osa</w> 9
cus hion</w> 9
jer usalem</w> 9
myx obacter 9
phyllo cla 9
nur sing</w> 9
blan k</w> 9
alpin a</w> 9
rece iver</w> 9
ign on</w> 9
need le 9
mani asis</w> 9
cloth ing</w> 9
sick le</w> 9
diplo matic</w> 9
verte br 9
ethy lene</w> 9
agro pyron</w> 9
peti t</w> 9
exec ution</w> 9
pes o</w> 9
haz ard</w> 9
hir sut 9
transi t</w> 9
uter ine</w> 9
pseud omon 9
x- ray</w> 9
masti go 9
smoo th 9
glan s</w> 9
teach ing</w> 9
system a</w> 9
circum flex</w> 9
allo y</w> 9
shir t 9
adren ergic</w> 9
ocer eus</w> 9
scienti fic</w> 9
stur b 9
asp is</w> 9
asp ect</w> 9
emer gency</w> 9
winter green</w> 9
00 00 9
recor der</w> 9
concer t</w> 9
concer n</w> 9
andro meda</w> 9
fox tail</w> 9
ody tes</w> 9
carolin ensis</w> 9
carolin iana</w> 9
lub ric 9
diss ol 9
ammon ium</w> 9
raz or</w> 9
goose foot</w> 9
viri dis</w> 9
weap ons</w> 9
lysi machia</w> 9
horiz on</w> 9
ane ous</w> 9
combin ation</w> 9
condition ed</w> 9
phthal mus</w> 9
ass u</w> 9
apri cot</w> 9
take over</w> 9
narrow -leaved</w> 9
gravit ational</w> 9
presi dent</w> 9
gall ery</w> 9
zer o</w> 9
alas ka</w> 9
alum inum</w> 9
litt or 9
conden ser</w> 9
fortun e</w> 9
fif th</w> 9
prick ly</w> 9
scot tish</w> 9
statistic s</w> 9
sphy ra 9
hero ic</w> 9
rox ylon</w> 9
deter gent</w> 9
pim pernel</w> 9
supre me</w> 9
turk ish</w> 9
billi ard</w> 9
sylla ble</w> 9
jama ica</w> 9
wido w</w> 9
cos mic</w> 9
defin ition</w> 9
spre ad</w> 9
mandi bular</w> 9
lact uca</w> 9
anten na</w> 9
armor ed</w> 9
cardu elis</w> 9
fresh water</w> 9
selagin ella</w> 9
perfor mance</w> 9
carcin oma</w> 9
pizz a</w> 9
myrme co 9
fundam ental</w> 9
equival ent</w> 9
labyrin th 9
essen tial</w> 9
torto ise</w> 9
cultiv ated</w> 9
pup pet</w> 9
arauc aria</w> 9
leish maniasis</w> 9
abs ence</w> 9
verben a</w> 9
foster - 9
crist ata</w> 9
thorac ic</w> 9
chamaec y 9
himan topus</w> 9
clut ch</w> 9
huck leberry</w> 9
orio le</w> 9
ligu strum</w> 9
lespe deza</w> 9
lobe lia</w> 9
eccle sias 9
soy bean</w> 9
pipi stre 9
augh ter</w> 9
marsu pi 9
streng th</w> 9
capsu le</w> 9
rotun difolia</w> 9
accom mod 9
toler ance</w> 9
notho fagus</w> 9
cater pillar</w> 9
snak eroot</w> 9
polypo dy</w> 9
axio m</w> 9
cerebr i</w> 9
semper virens</w> 9
ancho vy</w> 9
calori e</w> 9
caeru lea</w> 9
mistle toe</w> 9
lugg age</w> 9
infrar ed</w> 9
a dium</w> 8
n an</w> 8
n 's</w> 8
n ity</w> 8
n ite</w> 8
t ch 8
t ul 8
t we 8
t ell 8
t ales</w> 8
t atus</w> 8
i b 8
i op 8
i tic</w> 8
i ales</w> 8
i ba</w> 8
i sin</w> 8
i onic</w> 8
i ority</w> 8
u b</w> 8
u .</w> 8
r er</w> 8
m age</w> 8
m ist</w> 8
l ment</w> 8
l ach 8
l ura</w> 8
l arix</w> 8
c d 8
c tomy</w> 8
o di 8
o eu 8
o f- 8
o virus</w> 8
o ven</w> 8
o charis</w> 8
s m 8
s u</w> 8
s ella</w> 8
s ula</w> 8
s elling</w> 8
e in 8
e el 8
e po 8
e ae</w> 8
e ia</w> 8
e ub 8
e dic 8
e gal 8
e bon 8
e flower</w> 8
e ight</w> 8
e lidae</w> 8
e ater</w> 8
e sii</w> 8
f om 8
p i</w> 8
p ter</w> 8
p th</w> 8
p anth 8
p ula</w> 8
p ica</w> 8
p ace</w> 8
p ro</w> 8
v re</w> 8
d alis</w> 8
d am</w> 8
d ling</w> 8
d le- 8
w ur 8
w it</w> 8
h - 8
h it 8
h ul 8
h ec 8
h ut 8
h au 8
h ast 8
h itch</w> 8
h inidae</w> 8
b um</w> 8
b order</w> 8
b ang 8
b est</w> 8
b ish 8
b re</w> 8
g ag 8
g im 8
g ay</w> 8
g low</w> 8
y ri 8
y 's</w> 8
k um 8
k ne 8
k apin</w> 8
- leaf</w> 8
- down</w> 8
- me- 8
x ation</w> 8
x im 8
x yl 8
z am 8
z iz 8
j ol 8
j ig 8
1 4</w> 8
in k 8
in d</w> 8
in es 8
in ap 8
in ex 8
in ium</w> 8
in fin 8
in flu 8
in iti 8
in jection</w> 8
en iaceae</w> 8
er ent</w> 8
er go 8
an as 8
an ine</w> 8
an tic 8
an ser 8
ti me 8
ti gh 8
ti lity</w> 8
ti bet 8
ti eth</w> 8
ar g 8
ar om 8
ar ec 8
ar men 8
ar alia</w> 8
ar mor</w> 8
or d 8
or ia</w> 8
or yc 8
or bit</w> 8
al do 8
al idae</w> 8
al im 8
al arm</w> 8
al umin 8
al cea</w> 8
al dehyde</w> 8
ro ti 8
ro sea</w> 8
ro ute</w> 8
ro wing</w> 8
ro gation</w> 8
st air 8
st aff 8
st unt</w> 8
on aria</w> 8
on iidae</w> 8
at s</w> 8
at al</w> 8
at es</w> 8
at ta</w> 8
ac tu 8
ac char 8
ac anthus</w> 8
ac qui 8
re us</w> 8
re al 8
re de 8
re ar</w> 8
re vi 8
re tar 8
re strial</w> 8
re flux</w> 8
re infor 8
li i</w> 8
li me 8
li ma 8
li th</w> 8
ri d</w> 8
ri ed</w> 8
ri char 8
ch ment</w> 8
ch ial</w> 8
si l</w> 8
si aceae</w> 8
si mu 8
le e 8
le f 8
le ment</w> 8
le dger</w> 8
co d</w> 8
co al 8
co bal 8
co ides</w> 8
am idae</w> 8
am bro 8
am ino 8
am pli 8
am big 8
lo ver</w> 8
lo bul 8
lo ides</w> 8
di te</w> 8
di lat 8
di sci 8
di pole</w> 8
di stress</w> 8
gen tle 8
ra ven 8
ra pe</w> 8
ra tional</w> 8
ra bleness</w> 8
es ch 8
es sive</w> 8
ph od 8
th al</w> 8
th ic 8
th im 8
th ing 8
th ian</w> 8
th fulness</w> 8
th under 8
th mic</w> 8
th atch</w> 8
la e</w> 8
la se</w> 8
la im 8
la de</w> 8
la vender</w> 8
il le 8
is on</w> 8
is lam</w> 8
un ia</w> 8
un ce</w> 8
un tain</w> 8
ic ing</w> 8
ic ian</w> 8
ic ula</w> 8
ic ulus</w> 8
el bow</w> 8
it s</w> 8
po ut</w> 8
po mac 8
po uch</w> 8
po cket 8
as ing</w> 8
as car 8
as ses 8
as phod 8
de par 8
de ce 8
de ca 8
de fic 8
de stin 8
de lion</w> 8
de wberry</w> 8
de lay</w> 8
de tention</w> 8
de pth</w> 8
et amine</w> 8
om ni 8
om phal 8
ul tr 8
se g 8
se us</w> 8
se di 8
se asi 8
se cant</w> 8
ter ra 8
ter mi 8
id ing</w> 8
to w</w> 8
to ur 8
to ed</w> 8
to ll 8
em in 8
em us</w> 8
em per 8
em pi 8
em ony</w> 8
bo t</w> 8
bo ut 8
bo und</w> 8
sp el 8
sp ath 8
sp ade 8
sh er 8
sh ag 8
sh ad 8
sh ed</w> 8
sh ell 8
sh ak 8
sh aw 8
ap a</w> 8
ap er 8
ap peti 8
ap pear 8
mo s</w> 8
mo t</w> 8
mo ur 8
mo ck</w> 8
mo ving</w> 8
mo bile</w> 8
ol um</w> 8
ol aris</w> 8
ab u 8
ab ane</w> 8
ab asia</w> 8
ab ronia</w> 8
ec ta 8
ec lip 8
ad el 8
ad op 8
ad aceae</w> 8
ad voc 8
ad dict</w> 8
qu er</w> 8
qu it 8
qu at</w> 8
qu and 8
per o 8
per it 8
per id 8
per man 8
per pet 8
per cus 8
per fec 8
con gen 8
con fer 8
con ium</w> 8
con val 8
con form 8
con vic 8
con tent</w> 8
con duct</w> 8
con struction</w> 8
con ifer 8
oc ent 8
oc idae</w> 8
oc ell 8
oc ular</w> 8
pro p</w> 8
pro ble 8
pro tection</w> 8
uc us</w> 8
com bre 8
ub arb</w> 8
lan dica</w> 8
ne uri 8
ne sian</w> 8
ent us</w> 8
sc at 8
sc uti 8
sc ented</w> 8
op or 8
op ath 8
op position</w> 8
me ster</w> 8
me lia</w> 8
ati tis</w> 8
te m</w> 8
te enth</w> 8
pe l</w> 8
pe de</w> 8
pe el</w> 8
pe dia</w> 8
car no 8
car rot</w> 8
car otid</w> 8
hy la</w> 8
ho se</w> 8
ho ary</w> 8
par ap 8
par kin 8
par alysis</w> 8
be e 8
be ak</w> 8
be aver</w> 8
ver s</w> 8
ver 's</w> 8
ver ni 8
ver dict</w> 8
pi st 8
pi ment 8
pi dity</w> 8
vi burnum</w> 8
sy phili 8
sy rup</w> 8
no va</w> 8
ff on</w> 8
gu est</w> 8
bi tis</w> 8
bi bit</w> 8
bi byte</w> 8
ta g</w> 8
ta ic</w> 8
ta ff 8
ta urus</w> 8
ta iner</w> 8
ta uto 8
for me</w> 8
cor ro 8
cor dy 8
cor ax</w> 8
im pulse</w> 8
tic ation</w> 8
au ro 8
au th 8
au ricul 8
tri m 8
tri g 8
tri ck</w> 8
ve loc 8
ing ing</w> 8
ast ing</w> 8
ast hen 8
ast ronom 8
ru pi 8
ce - 8
ste am 8
pre dic 8
and er 8
mar tin 8
mar tes</w> 8
mar ble 8
mar tin</w> 8
su a 8
ex - 8
ex cre 8
ge omet 8
cy r 8
cy tic</w> 8
cy cli 8
cy stis</w> 8
cal es</w> 8
cal ity</w> 8
cal la</w> 8
cal amin 8
sa iling</w> 8
man ia</w> 8
fl in 8
ci dium</w> 8
ci ousness</w> 8
ci dia</w> 8
wh oo 8
wh ist 8
gre as 8
tro l 8
tro pe</w> 8
tro pin</w> 8
bu t</w> 8
go b 8
go - 8
can s</w> 8
der mo 8
der iv 8
ha i 8
min u 8
min er</w> 8
min ess</w> 8
anth aceae</w> 8
ari ales</w> 8
os m 8
os cop 8
fer ae</w> 8
dro ps</w> 8
lin o 8
lin kage</w> 8
ni e</w> 8
tra iler</w> 8
cre me</w> 8
cre ature</w> 8
sub phylum</w> 8
ll y</w> 8
comm en 8
comm el 8
comm ut 8
plan etary</w> 8
dis count</w> 8
ach a</w> 8
fe lic 8
fe bru 8
fe eder</w> 8
tu li 8
tu mour</w> 8
cla y 8
mu d 8
ten - 8
ten der</w> 8
dic k</w> 8
dic ran 8
pri mi 8
pri ze</w> 8
low land</w> 8
wat tle</w> 8
ill ata</w> 8
cer emony</w> 8
ob us</w> 8
ob acter</w> 8
str ator</w> 8
gro en 8
bre ech</w> 8
bre eze</w> 8
oph io 8
rin k</w> 8
hor ri 8
clo ck 8
clo sing</w> 8
clo sure</w> 8
eu ony 8
eu genia</w> 8
inter face</w> 8
ther m</w> 8
ther es</w> 8
ther mi 8
ca ir 8
ca ine</w> 8
ca vi 8
ca use</w> 8
cro ok 8
pla sty</w> 8
ty phlo 8
cho s</w> 8
ple th 8
ster one</w> 8
ster oid</w> 8
tr ate</w> 8
met acar 8
mi stress</w> 8
du st 8
tor ship</w> 8
mus k 8
mus a</w> 8
mus sel</w> 8
mus lim</w> 8
lu pus</w> 8
lu pinus</w> 8
sch ist 8
sch eme</w> 8
sk ater</w> 8
ide ctomy</w> 8
ang us</w> 8
sti ll 8
cat tle 8
io logy</w> 8
io ides</w> 8
sho vel</w> 8
bri er</w> 8
stri ate</w> 8
sw er 8
sw itch 8
ram ine</w> 8
lor is</w> 8
ba w 8
gal ac 8
gal ium</w> 8
the sis</w> 8
the ology</w> 8
mor tality</w> 8
lam p 8
lam a</w> 8
tom ography</w> 8
rh ubarb</w> 8
sn or 8
poly podium</w> 8
poly gala</w> 8
cul t</w> 8
arter ial</w> 8
arter itis</w> 8
mac ulata</w> 8
che on</w> 8
che ir 8
che que</w> 8
men is 8
sur vi 8
but ton 8
but eo</w> 8
cur rant</w> 8
glo t 8
glo sso 8
blo ck 8
jo ke</w> 8
wa y 8
pu er 8
pu ri 8
thy me</w> 8
off en 8
da ub 8
da vi 8
cha ir 8
flow ered</w> 8
pap ri 8
pap ili 8
cra w 8
har p</w> 8
har vest</w> 8
sil kworm</w> 8
form ing</w> 8
sor us</w> 8
fu ge</w> 8
vir tu 8
bul bo 8
pter idae</w> 8
pter ido 8
pet rel</w> 8
pet unia</w> 8
dra gon 8
lon gi 8
gam es</w> 8
gam bling</w> 8
fin ish</w> 8
vo y 8
vo te</w> 8
ish ed</w> 8
proc ell 8
gla uca</w> 8
mul let</w> 8
des ensi 8
sol eno 8
pic us</w> 8
pur se</w> 8
fal co</w> 8
cas tille 8
gran adi 8
cle ft</w> 8
pas sion</w> 8
pas sing</w> 8
cir cus</w> 8
jun cus</w> 8
opter ous</w> 8
opter yx</w> 8
tar si 8
fle xi 8
cri ticism</w> 8
zo arc 8
lar ge 8
spor angium</w> 8
far mer</w> 8
far ming</w> 8
chin kapin</w> 8
idi s</w> 8
she i 8
cli tor 8
bom ba 8
ato m</w> 8
ato logy</w> 8
pon g</w> 8
pon dweed</w> 8
chro matic</w> 8
san tal 8
vis or</w> 8
phi idae</w> 8
comp li 8
vul pes</w> 8
vit ae</w> 8
som atic</w> 8
gri d</w> 8
ring - 8
sau ropo 8
out put</w> 8
sin ensis</w> 8
ev o</w> 8
hon or 8
aut um 8
dan delion</w> 8
wi g</w> 8
ation ism</w> 8
sum mer 8
vic ia</w> 8
yl lis</w> 8
ax ial</w> 8
set ter</w> 8
new born</w> 8
nec ked</w> 8
gram matical</w> 8
sper mae</w> 8
aff airs</w> 8
nic kel</w> 8
mes o 8
kin o</w> 8
ant ine</w> 8
medic ago</w> 8
cit ation</w> 8
spin ning</w> 8
gast er 8
gast ero 8
mili tar 8
epi theli 8
fro zen</w> 8
eri aceae</w> 8
offic ial</w> 8
brac te 8
jap on 8
ela eag 8
sou l</w> 8
vent ricle</w> 8
doc tor 8
hun garian</w> 8
sta in</w> 8
sta sis</w> 8
cop per 8
sup porting</w> 8
cab in</w> 8
pel argon 8
je w</w> 8
dig ger</w> 8
pec tin 8
zy gn 8
jac ob 8
peri pat 8
fly catcher</w> 8
bacter iaceae</w> 8
psycho sis</w> 8
lun ch</w> 8
chec k 8
ony m</w> 8
phen y 8
sla vic</w> 8
eli tis</w> 8
fran k 8
nig ri 8
dal bergia</w> 8
gly co 8
angi oma</w> 8
multi pli 8
sim plex</w> 8
clin tonia</w> 8
kn ap 8
lum in 8
cott age</w> 8
pli ers</w> 8
cere al</w> 8
geo graphy</w> 8
ligh t- 8
heli x</w> 8
coo king</w> 8
up on</w> 8
cast or</w> 8
fol ding</w> 8
tox o 8
actin omyc 8
rhe um</w> 8
resi dence</w> 8
prim ula</w> 8
pus sy 8
ja w 8
jud ge</w> 8
sati n</w> 8
neg li 8
tab le 8
econom ics</w> 8
tech ni 8
audi o</w> 8
nut meg</w> 8
opo d</w> 8
eph ed 8
dd ler</w> 8
lati folia</w> 8
wol f 8
wol ff 8
ana esthetic</w> 8
amo unt</w> 8
scar ab 8
p- up</w> 8
lingu al</w> 8
va ult</w> 8
inte gra 8
chal k</w> 8
gener ator</w> 8
matri caria</w> 8
cru st 8
ka uri</w> 8
free ze</w> 8
nom inal</w> 8
fluor es 8
noc tu 8
fen e 8
alpin um</w> 8
rece ption</w> 8
fon tan 8
ali en 8
phar mac 8
vil lea</w> 8
alle gh 8
liter ature</w> 8
fet al</w> 8
roll ing</w> 8
erythro nium</w> 8
-of- the- 8
liber ty</w> 8
law yer</w> 8
nast ur 8
hir ud 8
rose wood</w> 8
pol o</w> 8
trop ic</w> 8
transi tive</w> 8
fis sure</w> 8
ono tus</w> 8
dun e</w> 8
cover ed</w> 8
assa y</w> 8
classi fication</w> 8
rib es</w> 8
holo th 8
masti g 8
ento sa</w> 8
admini strative</w> 8
ston e 8
ely mus</w> 8
shel f</w> 8
shel ter</w> 8
manag er</w> 8
whi pping</w> 8
mix ed</w> 8
clean er</w> 8
jas min 8
fiel d- 8
dendro ica</w> 8
german ic</w> 8
arab ian</w> 8
onto logy</w> 8
ophag a</w> 8
joh n</w> 8
pav o</w> 8
thyro id</w> 8
omyco tina</w> 8
differ ence</w> 8
echin o 8
drin k</w> 8
kill ing</w> 8
atten tion</w> 8
chim ney</w> 8
sit ting</w> 8
theat rical</w> 8
fav or 8
demo cra 8
bread th</w> 8
pain ter</w> 8
cig ar</w> 8
ern ity</w> 8
chol era</w> 8
box ing</w> 8
wee vil</w> 8
croco dy 8
symbo l</w> 8
dram atic</w> 8
hop per</w> 8
shop ping</w> 8
prob ability</w> 8
neut r 8
civi lization</w> 8
cogni tion</w> 8
figh ting</w> 8
stron g</w> 8
propor tional</w> 8
obli que</w> 8
turni x</w> 8
jew ish</w> 8
hybri d</w> 8
imag inary</w> 8
palat ine</w> 8
stil t</w> 8
psitt ac 8
bric k 8
protec tive</w> 8
paral lax</w> 8
parasi te</w> 8
synthe tic</w> 8
vapo r</w> 8
reci proc 8
crisp a</w> 8
laryn go 8
ocarp aceae</w> 8
aven s</w> 8
glac ier</w> 8
chis el</w> 8
topo logy</w> 8
consum er</w> 8
bud get</w> 8
phila delph 8
sulph ur</w> 8
pariet al</w> 8
fast ener</w> 8
diamon d</w> 8
prop eller</w> 8
scan ner</w> 8
beli ef</w> 8
lanceol ata</w> 8
pru ri 8
engra ving</w> 8
loun ge</w> 8
peru vian</w> 8
const ancy</w> 8
consc iousness</w> 8
penic illin</w> 8
glossi dae</w> 8
wait ing</w> 8
thous and</w> 8
gink go 8
speed well</w> 8
quisi tion</w> 8
semic on 8
agricul ture</w> 8
embro id 8
hep atic</w> 8
plant ago</w> 8
torpe do</w> 8
braz ilian</w> 8
letter s</w> 8
transmit ter</w> 8
fr uc 8
kent ucky</w> 8
ariz ona</w> 8
alex and 8
carti lage</w> 8
cardam ine</w> 8
exha ust</w> 8
horses hoe</w> 8
pitu itary</w> 8
lacri mal</w> 8
cotyle don 8
fric tion</w> 8
ladi es'</w> 8
occipit al</w> 8
carpen ter's</w> 8
vire o</w> 8
budd h 8
trage laphus</w> 8
publish ing</w> 8
behavi or</w> 8
envi ron 8
annon a</w> 8
atmo spher 8
aman ita</w> 8
mouse - 8
guit ar</w> 8
lych nis</w> 8
expon ential</w> 8
gossy pium</w> 8
malt ese</w> 8
type writer</w> 8
stercu lia</w> 8
macad amia</w> 8
leng th</w> 8
dioscor ea</w> 8
sage brush</w> 8
frut escens</w> 8
tibi alis</w> 8
pheas ant</w> 8
depreci ation</w> 8
seis mo 8
mosa ic</w> 8
admi ral</w> 8
sambuc us</w> 8
atrio ventricular</w> 8
bish op 8
defic it</w> 8
termi tidae</w> 8
emper or</w> 8
veloc ity</w> 8
calamin tha</w> 8
febru ary</w> 8
pelargon ium</w> 8
a em 7
a que 7
a ury</w> 7
n ation 7
n ya</w> 7
n ings</w> 7
n uci 7
t ting</w> 7
t let</w> 7
t atum</w> 7
t arian</w> 7
t eller</w> 7
i or 7
i ella</w> 7
i form</w> 7
i fer</w> 7
q i</w> 7
u . 7
u ph 7
r ator</w> 7
r urus</w> 7
m id</w> 7
m ing 7
m ata</w> 7
l le</w> 7
l one</w> 7
l uck</w> 7
c t</w> 7
c d</w> 7
c ae</w> 7
c ess</w> 7
c ly 7
c ry</w> 7
c age</w> 7
c lon 7
c ider</w> 7
o ar 7
o ec 7
o vi 7
o stre 7
o eno 7
o tomy</w> 7
o phyllum</w> 7
o 'clock</w> 7
s as 7
s ent</w> 7
s lan 7
s ell 7
s ment</w> 7
s sia</w> 7
s low</w> 7
s ang 7
s able</w> 7
s ling</w> 7
s mel 7
s ago</w> 7
e k 7
e z 7
e cho 7
e pin 7
e as</w> 7
e tics</w> 7
e ola</w> 7
e ven</w> 7
e hound</w> 7
e volution</w> 7
f ate</w> 7
f ry</w> 7
f ill 7
p ist</w> 7
p rum 7
p anthera</w> 7
v o</w> 7
v on</w> 7
v ar</w> 7
v ism</w> 7
v aria</w> 7
v ora</w> 7
d u</w> 7
d ation</w> 7
d ad</w> 7
d ak 7
d run 7
w al</w> 7
w ad 7
h m</w> 7
h ug 7
b w</w> 7
b ation</w> 7
b au 7
b rate</w> 7
b lower</w> 7
g op 7
g av 7
g run 7
g athering</w> 7
y e 7
y e</w> 7
y on 7
y al</w> 7
y east</w> 7
k ra 7
k sh 7
k ol 7
k ab 7
k op 7
k nit 7
k ah</w> 7
- on</w> 7
- wood</w> 7
- flower</w> 7
z a 7
z z</w> 7
z ee</w> 7
z apo 7
j en 7
j it 7
j ut 7
j ava</w> 7
in ist</w> 7
in ite</w> 7
in ner</w> 7
in side</w> 7
in clusion</w> 7
en i</w> 7
en ic</w> 7
en cyc 7
er in 7
er ite</w> 7
er ra</w> 7
an er</w> 7
an or 7
an cy 7
an ox 7
an ship</w> 7
an aph 7
an iso 7
ti t</w> 7
ti us</w> 7
ti ble</w> 7
ti me- 7
ar y 7
ar - 7
ar en 7
ar re 7
ar ri 7
ar ab</w> 7
ar mour</w> 7
or 's</w> 7
or nam 7
or yx</w> 7
al ab 7
al iz 7
al ep 7
al ger 7
al bat 7
al leg 7
al osa</w> 7
al ley</w> 7
al iser</w> 7
al izer</w> 7
ro e</w> 7
ro un 7
ro pe 7
ro be</w> 7
ro sem 7
st um 7
st ment</w> 7
st able</w> 7
on oc 7
on ry</w> 7
on ite</w> 7
on ella</w> 7
on na 7
on set</w> 7
on ics</w> 7
at ine</w> 7
at te 7
at las</w> 7
ac ular</w> 7
ac aulis</w> 7
ac idosis</w> 7
re pe 7
re tri 7
re mov 7
re duction</w> 7
re tte</w> 7
re sort</w> 7
re spiration</w> 7
